{
  "version": "1.0",
  "truncation": null,
  "padding": null,
  "added_tokens": [
    {
      "id": 0,
      "content": "<|endoftext|>",
      "single_word": false,
      "lstrip": false,
      "rstrip": false,
      "normalized": false,
      "special": true
    },
    {
      "id": 1,
      "content": "<|pad|>",
      "single_word": false,
      "lstrip": false,
      "rstrip": false,
      "normalized": false,
      "special": true
    },
    {
      "id": 2,
      "content": "<|system|>",
      "single_word": false,
      "lstrip": false,
      "rstrip": false,
      "normalized": false,
      "special": true
    },
    {
      "id": 3,
      "content": "<|user|>",
      "single_word": false,
      "lstrip": false,
      "rstrip": false,
      "normalized": false,
      "special": true
    },
    {
      "id": 4,
      "content": "<|assistant|>",
      "single_word": false,
      "lstrip": false,
      "rstrip": false,
      "normalized": false,
      "special": true
    }
  ],
  "normalizer": null,
  "pre_tokenizer": {
    "type": "ByteLevel",
    "add_prefix_space": false,
    "trim_offsets": true,
    "use_regex": true
  },
  "post_processor": {
    "type": "ByteLevel",
    "add_prefix_space": true,
    "trim_offsets": false,
    "use_regex": true
  },
  "decoder": {
    "type": "ByteLevel",
    "add_prefix_space": true,
    "trim_offsets": true,
    "use_regex": true
  },
  "model": {
    "type": "BPE",
    "dropout": null,
    "unk_token": null,
    "continuing_subword_prefix": null,
    "end_of_word_suffix": null,
    "fuse_unk": false,
    "byte_fallback": false,
    "ignore_merges": false,
    "vocab": {
      "<|endoftext|>": 0,
      "<|pad|>": 1,
      "<|system|>": 2,
      "<|user|>": 3,
      "<|assistant|>": 4,
      "!": 5,
      "\"": 6,
      "#": 7,
      "$": 8,
      "%": 9,
      "&": 10,
      "'": 11,
      "(": 12,
      ")": 13,
      "*": 14,
      "+": 15,
      ",": 16,
      "-": 17,
      ".": 18,
      "/": 19,
      "0": 20,
      "1": 21,
      "2": 22,
      "3": 23,
      "4": 24,
      "5": 25,
      "6": 26,
      "7": 27,
      "8": 28,
      "9": 29,
      ":": 30,
      ";": 31,
      "<": 32,
      "=": 33,
      ">": 34,
      "?": 35,
      "@": 36,
      "A": 37,
      "B": 38,
      "C": 39,
      "D": 40,
      "E": 41,
      "F": 42,
      "G": 43,
      "H": 44,
      "I": 45,
      "J": 46,
      "K": 47,
      "L": 48,
      "M": 49,
      "N": 50,
      "O": 51,
      "P": 52,
      "Q": 53,
      "R": 54,
      "S": 55,
      "T": 56,
      "U": 57,
      "V": 58,
      "W": 59,
      "X": 60,
      "Y": 61,
      "Z": 62,
      "[": 63,
      "\\": 64,
      "]": 65,
      "^": 66,
      "_": 67,
      "`": 68,
      "a": 69,
      "b": 70,
      "c": 71,
      "d": 72,
      "e": 73,
      "f": 74,
      "g": 75,
      "h": 76,
      "i": 77,
      "j": 78,
      "k": 79,
      "l": 80,
      "m": 81,
      "n": 82,
      "o": 83,
      "p": 84,
      "q": 85,
      "r": 86,
      "s": 87,
      "t": 88,
      "u": 89,
      "v": 90,
      "w": 91,
      "x": 92,
      "y": 93,
      "z": 94,
      "{": 95,
      "|": 96,
      "}": 97,
      "~": 98,
      "¡": 99,
      "¢": 100,
      "£": 101,
      "¤": 102,
      "¥": 103,
      "¦": 104,
      "§": 105,
      "¨": 106,
      "©": 107,
      "ª": 108,
      "«": 109,
      "¬": 110,
      "®": 111,
      "¯": 112,
      "°": 113,
      "±": 114,
      "²": 115,
      "³": 116,
      "´": 117,
      "µ": 118,
      "¶": 119,
      "·": 120,
      "¸": 121,
      "¹": 122,
      "º": 123,
      "»": 124,
      "¼": 125,
      "½": 126,
      "¾": 127,
      "¿": 128,
      "À": 129,
      "Á": 130,
      "Â": 131,
      "Ã": 132,
      "Ä": 133,
      "Å": 134,
      "Æ": 135,
      "Ç": 136,
      "È": 137,
      "É": 138,
      "Ê": 139,
      "Ë": 140,
      "Ì": 141,
      "Í": 142,
      "Î": 143,
      "Ï": 144,
      "Ð": 145,
      "Ñ": 146,
      "Ò": 147,
      "Ó": 148,
      "Ô": 149,
      "Õ": 150,
      "Ö": 151,
      "×": 152,
      "Ø": 153,
      "Ù": 154,
      "Ú": 155,
      "Û": 156,
      "Ü": 157,
      "Ý": 158,
      "Þ": 159,
      "ß": 160,
      "à": 161,
      "á": 162,
      "â": 163,
      "ã": 164,
      "ä": 165,
      "å": 166,
      "æ": 167,
      "ç": 168,
      "è": 169,
      "é": 170,
      "ê": 171,
      "ë": 172,
      "ì": 173,
      "í": 174,
      "î": 175,
      "ï": 176,
      "ð": 177,
      "ñ": 178,
      "ò": 179,
      "ó": 180,
      "ô": 181,
      "õ": 182,
      "ö": 183,
      "÷": 184,
      "ø": 185,
      "ù": 186,
      "ú": 187,
      "û": 188,
      "ü": 189,
      "ý": 190,
      "þ": 191,
      "ÿ": 192,
      "Ā": 193,
      "ā": 194,
      "Ă": 195,
      "ă": 196,
      "Ą": 197,
      "ą": 198,
      "Ć": 199,
      "ć": 200,
      "Ĉ": 201,
      "ĉ": 202,
      "Ċ": 203,
      "ċ": 204,
      "Č": 205,
      "č": 206,
      "Ď": 207,
      "ď": 208,
      "Đ": 209,
      "đ": 210,
      "Ē": 211,
      "ē": 212,
      "Ĕ": 213,
      "ĕ": 214,
      "Ė": 215,
      "ė": 216,
      "Ę": 217,
      "ę": 218,
      "Ě": 219,
      "ě": 220,
      "Ĝ": 221,
      "ĝ": 222,
      "Ğ": 223,
      "ğ": 224,
      "Ġ": 225,
      "ġ": 226,
      "Ģ": 227,
      "ģ": 228,
      "Ĥ": 229,
      "ĥ": 230,
      "Ħ": 231,
      "ħ": 232,
      "Ĩ": 233,
      "ĩ": 234,
      "Ī": 235,
      "ī": 236,
      "Ĭ": 237,
      "ĭ": 238,
      "Į": 239,
      "į": 240,
      "İ": 241,
      "ı": 242,
      "Ĳ": 243,
      "ĳ": 244,
      "Ĵ": 245,
      "ĵ": 246,
      "Ķ": 247,
      "ķ": 248,
      "ĸ": 249,
      "Ĺ": 250,
      "ĺ": 251,
      "Ļ": 252,
      "ļ": 253,
      "Ľ": 254,
      "ľ": 255,
      "Ŀ": 256,
      "ŀ": 257,
      "Ł": 258,
      "ł": 259,
      "Ń": 260,
      "Ġt": 261,
      "Ġa": 262,
      "in": 263,
      "he": 264,
      "re": 265,
      "on": 266,
      "Ġthe": 267,
      "at": 268,
      "er": 269,
      "Ġo": 270,
      "Ġs": 271,
      "en": 272,
      "Ġc": 273,
      "es": 274,
      "Ġw": 275,
      "nd": 276,
      "al": 277,
      "Ġp": 278,
      "it": 279,
      "is": 280,
      "ed": 281,
      "or": 282,
      "Ġof": 283,
      "Ġin": 284,
      "Ġf": 285,
      "an": 286,
      "Ġb": 287,
      "ic": 288,
      "ing": 289,
      "Ġm": 290,
      "ion": 291,
      "ar": 292,
      "Ġand": 293,
      "ro": 294,
      "Ġd": 295,
      "Ġto": 296,
      "as": 297,
      "ou": 298,
      "le": 299,
      "ent": 300,
      "ct": 301,
      "Ġh": 302,
      "Ġre": 303,
      "Ġth": 304,
      "Ġe": 305,
      "ve": 306,
      "om": 307,
      "il": 308,
      "Ġl": 309,
      "Ġn": 310,
      "st": 311,
      "ly": 312,
      "ation": 313,
      "et": 314,
      "ol": 315,
      "id": 316,
      "ĠT": 317,
      "im": 318,
      "Ġg": 319,
      "Ġis": 320,
      "se": 321,
      "ra": 322,
      "ur": 323,
      "ce": 324,
      "ot": 325,
      "ut": 326,
      "Ġbe": 327,
      "ul": 328,
      "ig": 329,
      "Ġst": 330,
      "ow": 331,
      "Ġfor": 332,
      "âĢ": 333,
      "ch": 334,
      "Ġu": 335,
      "ith": 336,
      "ĠA": 337,
      "Ġon": 338,
      "Ġwith": 339,
      "Ġthat": 340,
      "Ġ(": 341,
      "ver": 342,
      "el": 343,
      "Ġpro": 344,
      "ir": 345,
      "ĠS": 346,
      "Ġcon": 347,
      "Ġan": 348,
      "if": 349,
      "ĠC": 350,
      "am": 351,
      "ĠI": 352,
      "Ġas": 353,
      "Ġy": 354,
      "ay": 355,
      "ter": 356,
      "ere": 357,
      "od": 358,
      "ĠThe": 359,
      "her": 360,
      "Ġare": 361,
      "ad": 362,
      "ect": 363,
      "op": 364,
      "um": 365,
      "Ġor": 366,
      "os": 367,
      "Ġal": 368,
      "res": 369,
      "ate": 370,
      "ive": 371,
      "Ġde": 372,
      "Ġex": 373,
      "ment": 374,
      "ge": 375,
      "Ġ1": 376,
      "th": 377,
      "us": 378,
      "Ġwh": 379,
      "ity": 380,
      "ist": 381,
      "ab": 382,
      "Ġv": 383,
      "Ġcom": 384,
      "Ġyou": 385,
      "ies": 386,
      "Ġwas": 387,
      "ĠP": 388,
      "Ġit": 389,
      "est": 390,
      "ant": 391,
      "rom": 392,
      "ĠM": 393,
      "Ġsu": 394,
      "ess": 395,
      "iv": 396,
      "Ġhe": 397,
      "oc": 398,
      "ers": 399,
      "Ġby": 400,
      "ud": 401,
      "ac": 402,
      "qu": 403,
      "em": 404,
      "ore": 405,
      "Ġch": 406,
      "ical": 407,
      "nt": 408,
      "ill": 409,
      "ain": 410,
      "Ġat": 411,
      "ated": 412,
      "ial": 413,
      "Ġr": 414,
      "og": 415,
      "ĠB": 416,
      "ort": 417,
      "Ġha": 418,
      "ĠH": 419,
      "Ġfrom": 420,
      "igh": 421,
      "pp": 422,
      "ure": 423,
      "Ġne": 424,
      "ib": 425,
      "ke": 426,
      "Ġse": 427,
      "Ġcan": 428,
      "âĢĻ": 429,
      "ld": 430,
      "un": 431,
      "ĠD": 432,
      "ĠW": 433,
      "Ġle": 434,
      "Ġ2": 435,
      "ine": 436,
      "pt": 437,
      "ĠE": 438,
      "act": 439,
      "and": 440,
      "Ġsp": 441,
      "Ġwere": 442,
      "ĠF": 443,
      "ell": 444,
      "du": 445,
      "art": 446,
      "ents": 447,
      "Ġen": 448,
      "Ġsh": 449,
      "ĠR": 450,
      "ff": 451,
      "rou": 452,
      "Ġim": 453,
      "Ġnot": 454,
      "ĠN": 455,
      "per": 456,
      "ia": 457,
      "ost": 458,
      "Ġres": 459,
      "Ġhave": 460,
      "ions": 461,
      "Ġcomp": 462,
      "ult": 463,
      "Ġthis": 464,
      "Ġwe": 465,
      "Ġab": 466,
      "iz": 467,
      "Ġus": 468,
      "ip": 469,
      "Ġinc": 470,
      "ĠL": 471,
      "ight": 472,
      "ĠG": 473,
      "ast": 474,
      "ans": 475,
      "ase": 476,
      "all": 477,
      "Ġad": 478,
      "The": 479,
      "ther": 480,
      "Ġint": 481,
      "ich": 482,
      "Ġdis": 483,
      "Ġpl": 484,
      "ĠâĢ": 485,
      "are": 486,
      "vel": 487,
      "Ġcont": 488,
      "ous": 489,
      "00": 490,
      "ard": 491,
      "orm": 492,
      "ph": 493,
      "ome": 494,
      "ec": 495,
      "ide": 496,
      "ear": 497,
      "our": 498,
      "ations": 499,
      "gh": 500,
      "ag": 501,
      "pl": 502,
      "Ġac": 503,
      "age": 504,
      "Ġwor": 505,
      "ru": 506,
      "Ġpat": 507,
      "ould": 508,
      "Ġk": 509,
      "Ġper": 510,
      "ĠIn": 511,
      "Ġstud": 512,
      "Ġtheir": 513,
      "out": 514,
      "ĠO": 515,
      "ary": 516,
      "ress": 517,
      "ence": 518,
      "ood": 519,
      "reat": 520,
      "ction": 521,
      "ign": 522,
      "Ġwhe": 523,
      "Ġwhich": 524,
      "end": 525,
      "ong": 526,
      "Ġpre": 527,
      "Ġcl": 528,
      "ak": 529,
      "Ġall": 530,
      "Ġme": 531,
      "Ġmore": 532,
      "ens": 533,
      "ap": 534,
      "Ġtr": 535,
      "Ġyour": 536,
      "ĠU": 537,
      "Ġhas": 538,
      "ose": 539,
      "Ġsy": 540,
      "Ġimp": 541,
      "ance": 542,
      "ild": 543,
      "ĠTh": 544,
      "so": 545,
      "ie": 546,
      "ific": 547,
      "able": 548,
      "Ġinf": 549,
      "Ġthey": 550,
      "ater": 551,
      "ind": 552,
      "ust": 553,
      "ition": 554,
      "ual": 555,
      "ire": 556,
      "Ġwill": 557,
      "ep": 558,
      "Ġbut": 559,
      "iff": 560,
      "one": 561,
      "olog": 562,
      "ors": 563,
      "ach": 564,
      "Ġother": 565,
      "Ġman": 566,
      "ys": 567,
      "ory": 568,
      "Ġapp": 569,
      "Ġev": 570,
      "Ġte": 571,
      ").": 572,
      "ass": 573,
      "te": 574,
      "Ġalso": 575,
      "ffect": 576,
      "Ġpati": 577,
      "ri": 578,
      "ks": 579,
      "âĢĿ": 580,
      "Ġdo": 581,
      "cess": 582,
      "Ġar": 583,
      "Ġdiff": 584,
      "Ġone": 585,
      "Ġun": 586,
      "ular": 587,
      "Ġsc": 588,
      "ric": 589,
      "Ġthan": 590,
      "low": 591,
      "ry": 592,
      "ĠJ": 593,
      "av": 594,
      "ound": 595,
      "Ġout": 596,
      "Ġpart": 597,
      "ord": 598,
      "'s": 599,
      "Ġ3": 600,
      "Ġact": 601,
      "ang": 602,
      "Ġbet": 603,
      "Ġtim": 604,
      "Ġrec": 605,
      "ue": 606,
      "ree": 607,
      "ake": 608,
      "ace": 609,
      "ces": 610,
      "au": 611,
      "ub": 612,
      "ative": 613,
      "ced": 614,
      "very": 615,
      "yp": 616,
      "ice": 617,
      "we": 618,
      "Ġmay": 619,
      "Ġj": 620,
      "ates": 621,
      "ok": 622,
      "Ġra": 623,
      "ren": 624,
      "ite": 625,
      "erv": 626,
      "Ġabout": 627,
      "ount": 628,
      "ile": 629,
      "Ġso": 630,
      "Ġph": 631,
      "Ġass": 632,
      "Ġgen": 633,
      "lect": 634,
      "Ġwho": 635,
      "Ġyear": 636,
      "Ġpatients": 637,
      "Ġqu": 638,
      "Ġro": 639,
      "nder": 640,
      "Ġpe": 641,
      "ber": 642,
      "Ġcomm": 643,
      "ĠâĢľ": 644,
      "Ġbeen": 645,
      "),": 646,
      "ack": 647,
      "ased": 648,
      "Ġcell": 649,
      "Ġthese": 650,
      "Ġbl": 651,
      "ays": 652,
      "erm": 653,
      "now": 654,
      "ike": 655,
      "Ġinter": 656,
      "lud": 657,
      "ail": 658,
      "ame": 659,
      "uc": 660,
      "ons": 661,
      "Ġag": 662,
      "Ġ19": 663,
      "ĠThis": 664,
      "Ġdiffere": 665,
      "Ġrep": 666,
      "ish": 667,
      "fter": 668,
      "velop": 669,
      "ll": 670,
      "Ġfe": 671,
      "Ġmet": 672,
      "ĠIt": 673,
      "lic": 674,
      "ond": 675,
      "Ġcol": 676,
      "ject": 677,
      "Ġrel": 678,
      "Ġsur": 679,
      "Ġind": 680,
      "ĠSt": 681,
      "Ġunder": 682,
      "Ġtw": 683,
      "Ġob": 684,
      "alth": 685,
      "Ġcons": 686,
      "ied": 687,
      "Ġexp": 688,
      "Ġup": 689,
      "Ġwhen": 690,
      "Ġover": 691,
      "Ġinto": 692,
      "Ġtra": 693,
      "Ġtime": 694,
      "ings": 695,
      "Ġbec": 696,
      "Ġuse": 697,
      "Ġsign": 698,
      "stem": 699,
      "Ġthem": 700,
      "les": 701,
      "ĠK": 702,
      "rough": 703,
      "Ġits": 704,
      "Ġsub": 705,
      "Ġam": 706,
      "Ġeffect": 707,
      "vers": 708,
      "Ġhad": 709,
      "ally": 710,
      "ob": 711,
      "Ġreg": 712,
      "Ġsome": 713,
      "uring": 714,
      "Ġdes": 715,
      "Ġspec": 716,
      "ari": 717,
      "ween": 718,
      "mer": 719,
      "Ġincre": 720,
      "Ġdevelop": 721,
      "oth": 722,
      "Ġthere": 723,
      "Ġco": 724,
      "row": 725,
      "rit": 726,
      "ople": 727,
      "ating": 728,
      "Ġgrou": 729,
      "Ġtrans": 730,
      "Ġmost": 731,
      "Ġchild": 732,
      "ities": 733,
      "Ġhow": 734,
      "ility": 735,
      "Ġbetween": 736,
      "Ġused": 737,
      "int": 738,
      "Ġpo": 739,
      "irst": 740,
      "Ġwork": 741,
      "ne": 742,
      "ause": 743,
      "Ġinclud": 744,
      "Ġpres": 745,
      "ms": 746,
      "Ġ20": 747,
      "Ġnew": 748,
      "Ġ4": 749,
      "cy": 750,
      "Ġresp": 751,
      "ough": 752,
      "ĠV": 753,
      "Ġour": 754,
      "Ġtwo": 755,
      "Ġinv": 756,
      "Ġstudy": 757,
      "Ġ5": 758,
      "Ġno": 759,
      "ĠCh": 760,
      "Ġdet": 761,
      "Ġdec": 762,
      "Ġknow": 763,
      "Ġprodu": 764,
      "ian": 765,
      "ning": 766,
      "rib": 767,
      "Ġhis": 768,
      "Ġmod": 769,
      "Ġhigh": 770,
      "Ġsystem": 771,
      "Ġpeople": 772,
      "iss": 773,
      "red": 774,
      "ures": 775,
      "Ġ\"": 776,
      "Ġafter": 777,
      "ics": 778,
      "ments": 779,
      "Ġresult": 780,
      "Ġgo": 781,
      "Ġshow": 782,
      "ient": 783,
      "Ġprov": 784,
      "Ġsa": 785,
      "Ġneed": 786,
      "form": 787,
      "oci": 788,
      "hed": 789,
      "Ġlike": 790,
      "Ġsuch": 791,
      "hen": 792,
      "oss": 793,
      "ov": 794,
      "ases": 795,
      "ple": 796,
      "Ġfirst": 797,
      "Ġgroup": 798,
      "Ġonly": 799,
      "ove": 800,
      "ros": 801,
      "ational": 802,
      "ract": 803,
      "hes": 804,
      "cer": 805,
      "rop": 806,
      "Ġhel": 807,
      "als": 808,
      "Ġthrough": 809,
      "Ġhealth": 810,
      "Ġfl": 811,
      "tern": 812,
      "ron": 813,
      "Ġadd": 814,
      "Ġem": 815,
      "Ġactiv": 816,
      "ange": 817,
      "ise": 818,
      "Ġhelp": 819,
      "Ġyears": 820,
      "ible": 821,
      "Ġdifferent": 822,
      "ark": 823,
      "Ġlevel": 824,
      "cent": 825,
      "Ġmed": 826,
      "Ġtreat": 827,
      "ful": 828,
      "ins": 829,
      "ath": 830,
      "yl": 831,
      "cept": 832,
      "Ġacc": 833,
      "Ġif": 834,
      "Ġpr": 835,
      "ĠY": 836,
      "tain": 837,
      "ram": 838,
      "ious": 839,
      "Ġany": 840,
      "Ġwell": 841,
      "old": 842,
      "Ġ0": 843,
      "cc": 844,
      "ident": 845,
      "Ġrem": 846,
      "Ġdi": 847,
      "ook": 848,
      "Ġfound": 849,
      "Ġcar": 850,
      "ata": 851,
      "ered": 852,
      "Ġsm": 853,
      "Ġmany": 854,
      "ants": 855,
      "ized": 856,
      "ower": 857,
      "Ġwould": 858,
      "ink": 859,
      "ble": 860,
      "ution": 861,
      "Ġsupp": 862,
      "Ġduring": 863,
      "rol": 864,
      "ft": 865,
      "ically": 866,
      "ever": 867,
      "Ġdise": 868,
      "Ġant": 869,
      "Ġmon": 870,
      "Ġsim": 871,
      "Ġwhat": 872,
      "Ġfol": 873,
      "fore": 874,
      "Ġexam": 875,
      "Ġform": 876,
      "Ġatt": 877,
      "Ġexper": 878,
      "Ġsignific": 879,
      "Ġext": 880,
      "ĠUn": 881,
      "its": 882,
      "vent": 883,
      "chn": 884,
      "Ġtyp": 885,
      "In": 886,
      "Ġfact": 887,
      "Ġoff": 888,
      "ox": 889,
      "Ġrese": 890,
      "Ġimport": 891,
      "Ġwater": 892,
      "arch": 893,
      "ology": 894,
      "Ġanal": 895,
      "Ġ-": 896,
      "Ġusing": 897,
      "Ġ6": 898,
      "Ġcells": 899,
      "Ġhum": 900,
      "ĠWe": 901,
      "ulation": 902,
      "ruct": 903,
      "Ġcor": 904,
      "ural": 905,
      "gg": 906,
      "Ġvari": 907,
      "ited": 908,
      "hem": 909,
      "Ġnum": 910,
      "ife": 911,
      "Ġshould": 912,
      "ines": 913,
      "Ġtest": 914,
      "gan": 915,
      "ng": 916,
      "Ġcould": 917,
      "ined": 918,
      "ict": 919,
      "ool": 920,
      "Ġprog": 921,
      "xt": 922,
      "Ġdisc": 923,
      "ily": 924,
      "Ġsignificant": 925,
      "Ġear": 926,
      "Ġwhere": 927,
      "ature": 928,
      "ten": 929,
      "ues": 930,
      "ick": 931,
      "round": 932,
      "erg": 933,
      "Ġfun": 934,
      "Ġboth": 935,
      "ism": 936,
      "Ġdist": 937,
      "Ġfollow": 938,
      "Ġgl": 939,
      "ade": 940,
      "Ġchildren": 941,
      "inal": 942,
      "Ġlong": 943,
      "Ġend": 944,
      "ew": 945,
      "Ġlar": 946,
      "ared": 947,
      "ody": 948,
      "ĠâĢĵ": 949,
      "ium": 950,
      "acter": 951,
      "uch": 952,
      "Ġcent": 953,
      "Ġdata": 954,
      "rap": 955,
      "Ġdep": 956,
      "Ġpers": 957,
      "iew": 958,
      "ness": 959,
      "ection": 960,
      "mon": 961,
      "Ġcomple": 962,
      "Ġca": 963,
      "get": 964,
      "Ġredu": 965,
      "ym": 966,
      "Ġthose": 967,
      "Ġgener": 968,
      "Ġloc": 969,
      "ists": 970,
      "ting": 971,
      "Ġtechn": 972,
      "Ġsec": 973,
      "ĠHe": 974,
      "Ġpartic": 975,
      "gen": 976,
      "raph": 977,
      "Ġprocess": 978,
      "Ġlear": 979,
      "Ġval": 980,
      "ression": 981,
      "ts": 982,
      "Ġtreatment": 983,
      "Ġ201": 984,
      "Ġdef": 985,
      "Ġbu": 986,
      "omet": 987,
      "ene": 988,
      "sel": 989,
      "ĠAs": 990,
      "Ġmake": 991,
      "ral": 992,
      "chool": 993,
      "ran": 994,
      "ential": 995,
      "Ġref": 996,
      "Ġris": 997,
      "Ġinform": 998,
      "tic": 999,
      "Ġser": 1000,
      "Ġmeth": 1001,
      "ience": 1002,
      "str": 1003,
      "wn": 1004,
      "gn": 1005,
      "Ġrat": 1006,
      "Ġdisease": 1007,
      "ved": 1008,
      "Ġget": 1009,
      "ute": 1010,
      "ety": 1011,
      "Ġgrow": 1012,
      "Ġimportant": 1013,
      "Th": 1014,
      "Ġeach": 1015,
      "ually": 1016,
      "Ġfind": 1017,
      "Ġstr": 1018,
      "Ġmin": 1019,
      "ale": 1020,
      "Ġocc": 1021,
      "ize": 1022,
      "osis": 1023,
      "ality": 1024,
      "Ġ7": 1025,
      "Ġreport": 1026,
      "iqu": 1027,
      "ax": 1028,
      "iron": 1029,
      "meric": 1030,
      "Ġher": 1031,
      "cl": 1032,
      "Ġvery": 1033,
      "arm": 1034,
      "itive": 1035,
      "Ġmeas": 1036,
      "Ġ10": 1037,
      "Ġpresent": 1038,
      "Ġins": 1039,
      "Ġcur": 1040,
      "Ġbecause": 1041,
      "oid": 1042,
      "Ġbi": 1043,
      "Ġed": 1044,
      "Ġcount": 1045,
      "rain": 1046,
      "Ġrequ": 1047,
      "Ġless": 1048,
      "Ġpol": 1049,
      "ages": 1050,
      "Ġsk": 1051,
      "urn": 1052,
      "Ġhy": 1053,
      "Ġeven": 1054,
      "Ġgreat": 1055,
      "Ġaut": 1056,
      "ization": 1057,
      "ives": 1058,
      "Ġhuman": 1059,
      "Ġelect": 1060,
      "Ġke": 1061,
      "own": 1062,
      "Ġchar": 1063,
      "land": 1064,
      "ted": 1065,
      "ration": 1066,
      "omen": 1067,
      "Ġpop": 1068,
      "aw": 1069,
      "Ġsol": 1070,
      "other": 1071,
      "aking": 1072,
      "Ġmy": 1073,
      "Ġfam": 1074,
      "Ġhist": 1075,
      "Ġworld": 1076,
      "con": 1077,
      "Ġthen": 1078,
      "Ġimm": 1079,
      "ix": 1080,
      "Ġ=": 1081,
      "ĠAl": 1082,
      "Ġthree": 1083,
      "Ġcontrol": 1084,
      "ological": 1085,
      "Ġresults": 1086,
      "ex": 1087,
      "ivers": 1088,
      "Ġ8": 1089,
      "ital": 1090,
      "Ġassoci": 1091,
      "Ġway": 1092,
      "000": 1093,
      "up": 1094,
      "Ġ9": 1095,
      "Ġlead": 1096,
      "Ġpub": 1097,
      "Ġ18": 1098,
      "ck": 1099,
      "Ġinformation": 1100,
      "oy": 1101,
      "Ġcond": 1102,
      "Ġstudents": 1103,
      "ger": 1104,
      "hat": 1105,
      "ination": 1106,
      "Ġjust": 1107,
      "ĠHow": 1108,
      "Ġlife": 1109,
      "Ġprote": 1110,
      "ides": 1111,
      "atic": 1112,
      "ole": 1113,
      "Ġest": 1114,
      "Ġsmall": 1115,
      "nce": 1116,
      "Ġset": 1117,
      "Ġfood": 1118,
      "ĠAmeric": 1119,
      "Ġmain": 1120,
      "Ġinst": 1121,
      "hy": 1122,
      "Ġblood": 1123,
      "Ġmem": 1124,
      "Ġmethod": 1125,
      "Ġcall": 1126,
      "Ġexpl": 1127,
      "ivid": 1128,
      "Ġident": 1129,
      "ds": 1130,
      "Ġgra": 1131,
      "Ġpot": 1132,
      "ograph": 1133,
      "ĠThese": 1134,
      "Ġevery": 1135,
      "Ġav": 1136,
      "hip": 1137,
      "com": 1138,
      "Ġsaid": 1139,
      "Ġnumber": 1140,
      "Ġbeing": 1141,
      "ected": 1142,
      "ior": 1143,
      "ysis": 1144,
      "led": 1145,
      "Ġproble": 1146,
      "Ġcommun": 1147,
      "Ġprot": 1148,
      "Ġsee": 1149,
      "ified": 1150,
      "tle": 1151,
      "NA": 1152,
      "ices": 1153,
      "Ġchang": 1154,
      "Ġsame": 1155,
      "Ġmic": 1156,
      "rent": 1157,
      "viron": 1158,
      "iel": 1159,
      "ional": 1160,
      "Ġposs": 1161,
      "Ġcy": 1162,
      "Ġrisk": 1163,
      "Ġlevels": 1164,
      "Ġent": 1165,
      "Ġvis": 1166,
      "Ġcare": 1167,
      "ork": 1168,
      "Ġcommon": 1169,
      "imate": 1170,
      "der": 1171,
      "Ġbefore": 1172,
      "Ġperform": 1173,
      "Ġcre": 1174,
      "Ġnon": 1175,
      "stand": 1176,
      "ĠRe": 1177,
      "Ġwhile": 1178,
      "hib": 1179,
      "ock": 1180,
      "Ġbody": 1181,
      "Ġread": 1182,
      "Ġmuch": 1183,
      "ggest": 1184,
      "de": 1185,
      "ien": 1186,
      "Ġshe": 1187,
      "irect": 1188,
      "ty": 1189,
      "ĠAn": 1190,
      "Ġconf": 1191,
      "Ġsuggest": 1192,
      "ward": 1193,
      "Ġhig": 1194,
      "ĠPro": 1195,
      "ability": 1196,
      "Ġclass": 1197,
      "hing": 1198,
      "ished": 1199,
      "Ġimpro": 1200,
      "Ġlow": 1201,
      "ffic": 1202,
      "Ġappro": 1203,
      "osed": 1204,
      "Ġresearch": 1205,
      "ĠThey": 1206,
      "Ġfunction": 1207,
      "Ġright": 1208,
      "Ġactivity": 1209,
      "iod": 1210,
      "ergy": 1211,
      "Ġmade": 1212,
      "Ġdoes": 1213,
      "Ġlit": 1214,
      "itions": 1215,
      "ĠCom": 1216,
      "lu": 1217,
      "Ġday": 1218,
      "air": 1219,
      "Ġoften": 1220,
      "Ġsym": 1221,
      "Ġage": 1222,
      "Ġgood": 1223,
      "ective": 1224,
      "iver": 1225,
      "Ġobs": 1226,
      "Ġpost": 1227,
      "ury": 1228,
      "ven": 1229,
      "und": 1230,
      "Ġdeterm": 1231,
      "Ġorgan": 1232,
      "ption": 1233,
      "Ġback": 1234,
      "Ġphys": 1235,
      "Ġperson": 1236,
      "Ġpar": 1237,
      "Ġschool": 1238,
      "Ġdevelopment": 1239,
      "Ġmodel": 1240,
      "Ġindu": 1241,
      "ental": 1242,
      "Ġ200": 1243,
      "vironment": 1244,
      "Ġdid": 1245,
      "atory": 1246,
      "aj": 1247,
      "Ġincluding": 1248,
      "Ġdesign": 1249,
      "ĠFor": 1250,
      "ross": 1251,
      ".âĢĿ": 1252,
      "Ġconsid": 1253,
      "Ġmus": 1254,
      "idence": 1255,
      "oms": 1256,
      "ĠThere": 1257,
      "Ġcaus": 1258,
      "etic": 1259,
      "di": 1260,
      "pec": 1261,
      "hers": 1262,
      "Ġsupport": 1263,
      "read": 1264,
      "Ġlarge": 1265,
      "Ġret": 1266,
      "ially": 1267,
      "iving": 1268,
      "Ġown": 1269,
      "ormal": 1270,
      "rel": 1271,
      "ince": 1272,
      "lear": 1273,
      "Ġpos": 1274,
      "uss": 1275,
      "Ġdesc": 1276,
      "Ġclin": 1277,
      "Ġbeh": 1278,
      "ĠIf": 1279,
      "cular": 1280,
      "Ġagain": 1281,
      "ĠCon": 1282,
      "ving": 1283,
      "Ġdia": 1284,
      "Ġoccur": 1285,
      "Ġbas": 1286,
      "ired": 1287,
      "Ġtre": 1288,
      "day": 1289,
      "ars": 1290,
      "any": 1291,
      "Ġcal": 1292,
      "ived": 1293,
      "Ġwithout": 1294,
      "iven": 1295,
      "erc": 1296,
      "Ġtem": 1297,
      "Ġincreased": 1298,
      "min": 1299,
      "tal": 1300,
      "Ġconst": 1301,
      "ains": 1302,
      "This": 1303,
      "ma": 1304,
      "Ġstate": 1305,
      "Ġcancer": 1306,
      "Ġmeasure": 1307,
      "Ġeffects": 1308,
      "Ġwithin": 1309,
      "vern": 1310,
      "Ġinvest": 1311,
      "oh": 1312,
      "ividual": 1313,
      "ves": 1314,
      "Ġwomen": 1315,
      "Ġknown": 1316,
      "Ġaround": 1317,
      "Ġequ": 1318,
      "Ġserv": 1319,
      "..": 1320,
      "ently": 1321,
      "way": 1322,
      "view": 1323,
      "sy": 1324,
      "akes": 1325,
      "Ġstruct": 1326,
      "ids": 1327,
      "osp": 1328,
      "20": 1329,
      "Ġpract": 1330,
      "par": 1331,
      "Ġinvol": 1332,
      "ĠAr": 1333,
      "ier": 1334,
      "Ġhand": 1335,
      "the": 1336,
      "Ġmater": 1337,
      "Ġdown": 1338,
      "alu": 1339,
      "ĠHowever": 1340,
      "reen": 1341,
      "ull": 1342,
      "Ġop": 1343,
      "Ġunderstand": 1344,
      "eng": 1345,
      "ane": 1346,
      "Ġstart": 1347,
      "ouse": 1348,
      "Ġspecies": 1349,
      "eth": 1350,
      "Ġpoint": 1351,
      "Ġassociated": 1352,
      "Ġmat": 1353,
      "Ġstudies": 1354,
      "Ġstand": 1355,
      "ocial": 1356,
      "ajor": 1357,
      "Ġtake": 1358,
      "Ġindic": 1359,
      "Ġobserv": 1360,
      "Ġbre": 1361,
      "Ġcontin": 1362,
      "Ġnow": 1363,
      "Ġbr": 1364,
      "Ġpower": 1365,
      "rapy": 1366,
      "ters": 1367,
      "Ġcases": 1368,
      "Ġperiod": 1369,
      "Ġaddition": 1370,
      "nal": 1371,
      "ave": 1372,
      "ĠSc": 1373,
      "Ġhigher": 1374,
      "Ġadv": 1375,
      "ify": 1376,
      "Ġindividual": 1377,
      "Ġallow": 1378,
      "Ġchange": 1379,
      "Ġaffect": 1380,
      "Ġeduc": 1381,
      "iversity": 1382,
      "Ġpain": 1383,
      "ĠInd": 1384,
      "cle": 1385,
      "Ġanalysis": 1386,
      "Ġmult": 1387,
      "Ġlook": 1388,
      "rug": 1389,
      "eg": 1390,
      "Ġsit": 1391,
      "ert": 1392,
      "Ġmonth": 1393,
      "Ġcharacter": 1394,
      "ilar": 1395,
      "Ġdiagn": 1396,
      "Ġcap": 1397,
      "Ġcult": 1398,
      "Ġearly": 1399,
      "line": 1400,
      "Ġdr": 1401,
      "ets": 1402,
      "Ġenvironment": 1403,
      "Ġgu": 1404,
      "Ġfre": 1405,
      "Ġve": 1406,
      "orn": 1407,
      "Ġprof": 1408,
      "Ġpur": 1409,
      "cing": 1410,
      "Ġmean": 1411,
      "Ġpress": 1412,
      "ording": 1413,
      "arent": 1414,
      "Ġenergy": 1415,
      "Ġprev": 1416,
      "Ġanim": 1417,
      "Ġdirect": 1418,
      "Ġsever": 1419,
      "Ġincrease": 1420,
      "Ġproduct": 1421,
      "Ġterm": 1422,
      "Ġpotential": 1423,
      "Ġtype": 1424,
      "Ġarea": 1425,
      "Ġcour": 1426,
      "Ġbel": 1427,
      "Ġsecond": 1428,
      "Ġquest": 1429,
      "ret": 1430,
      "Ġmajor": 1431,
      "Ġchanges": 1432,
      "Ġplan": 1433,
      "Ġrate": 1434,
      "rodu": 1435,
      "10": 1436,
      "Ġmark": 1437,
      "ner": 1438,
      "Ġfew": 1439,
      "jects": 1440,
      "Ġele": 1441,
      "Ġcompared": 1442,
      "ield": 1443,
      "arc": 1444,
      "Ġwee": 1445,
      "urther": 1446,
      "Ġbo": 1447,
      "ering": 1448,
      "Ġplace": 1449,
      "Ġmaterial": 1450,
      "Ġconcent": 1451,
      "Ġprotein": 1452,
      "Ġlight": 1453,
      "Ġproper": 1454,
      "Ġeas": 1455,
      "Ġcalled": 1456,
      "inc": 1457,
      "io": 1458,
      "Ġland": 1459,
      "Ġamong": 1460,
      "ĠNew": 1461,
      "ĠSp": 1462,
      "Ġevalu": 1463,
      "Ġgroups": 1464,
      "Ġmust": 1465,
      "Ġbuild": 1466,
      "Ġlim": 1467,
      "ĠYou": 1468,
      "Ġpred": 1469,
      "omy": 1470,
      "Ġstill": 1471,
      "Ġpath": 1472,
      "Ġcurrent": 1473,
      "âĢľ": 1474,
      "Ġpercent": 1475,
      "Ġair": 1476,
      "Ġrest": 1477,
      "Ġplay": 1478,
      "Ġmight": 1479,
      ",âĢĿ": 1480,
      "Ġassess": 1481,
      "Ġexample": 1482,
      "Ġthough": 1483,
      "chan": 1484,
      "ining": 1485,
      "Ġspecific": 1486,
      "19": 1487,
      "Ġ15": 1488,
      "Ġfat": 1489,
      "Ġcomb": 1490,
      "Ġ12": 1491,
      "amp": 1492,
      "Ġes": 1493,
      "Ġold": 1494,
      "Ġcase": 1495,
      "Ġdel": 1496,
      "Ġprop": 1497,
      "Ġclinical": 1498,
      "bers": 1499,
      "ator": 1500,
      "erest": 1501,
      "to": 1502,
      "Ġprim": 1503,
      "Ġdon": 1504,
      "Ġbased": 1505,
      "ogen": 1506,
      "Ġlearn": 1507,
      "Ġsignificantly": 1508,
      "outh": 1509,
      "oph": 1510,
      "Ġcat": 1511,
      "ĠBut": 1512,
      "Ġpublic": 1513,
      "ources": 1514,
      "Ġdecre": 1515,
      "Ġcause": 1516,
      "lished": 1517,
      "Ġprovide": 1518,
      "ogn": 1519,
      "Ġdays": 1520,
      "cul": 1521,
      "cop": 1522,
      "ĠDe": 1523,
      "Ġsympt": 1524,
      "Ġimmun": 1525,
      "Ġfour": 1526,
      "Ġsens": 1527,
      "Ġ[": 1528,
      "ason": 1529,
      "Ġdescrib": 1530,
      "Ġoper": 1531,
      "though": 1532,
      "Ġfollowing": 1533,
      "ĠRes": 1534,
      "ense": 1535,
      "âĢĶ": 1536,
      "usion": 1537,
      "enef": 1538,
      "Ġsaf": 1539,
      "lish": 1540,
      "Ġsuc": 1541,
      "Ġprogram": 1542,
      "ee": 1543,
      "edi": 1544,
      "Ġbrain": 1545,
      "Ġdrug": 1546,
      "Ġsl": 1547,
      "Ġfamily": 1548,
      "ateg": 1549,
      "alk": 1550,
      "Ġpossible": 1551,
      "Ġsomet": 1552,
      "Ġheart": 1553,
      "Ġflu": 1554,
      "Ġbetter": 1555,
      "me": 1556,
      "Ġvol": 1557,
      "Ġide": 1558,
      "Ġinclude": 1559,
      "Ġhome": 1560,
      "ission": 1561,
      "Ġprevent": 1562,
      "Ġchem": 1563,
      "Ġiss": 1564,
      "Ġsimilar": 1565,
      "Ġvir": 1566,
      "Ġlower": 1567,
      "face": 1568,
      "illion": 1569,
      "Ġrece": 1570,
      "Ġel": 1571,
      "ĠAt": 1572,
      "oun": 1573,
      "dro": 1574,
      "Ġseveral": 1575,
      "Ġgovern": 1576,
      "Ġmicro": 1577,
      "angu": 1578,
      "gin": 1579,
      "Ġrole": 1580,
      "Ġthink": 1581,
      "amm": 1582,
      "Ġwrit": 1583,
      "Ġinvestig": 1584,
      "ivity": 1585,
      "Ġbehav": 1586,
      "of": 1587,
      "Ġflow": 1588,
      "Ġpatient": 1589,
      "Ġtum": 1590,
      "Ġdue": 1591,
      "Ġnormal": 1592,
      "ris": 1593,
      "ways": 1594,
      "ĠTo": 1595,
      "Ġdev": 1596,
      "Ġparticular": 1597,
      "self": 1598,
      "ither": 1599,
      "epend": 1600,
      "ries": 1601,
      "Ġshowed": 1602,
      "Ġdeg": 1603,
      "Ġinhib": 1604,
      "Ġagainst": 1605,
      "Ġnat": 1606,
      "Ġavail": 1607,
      "Ġrele": 1608,
      "ision": 1609,
      "ĠAd": 1610,
      "Ġhistory": 1611,
      "onse": 1612,
      "less": 1613,
      "Ġacid": 1614,
      "Ġlab": 1615,
      "Ġsing": 1616,
      "Ġmen": 1617,
      "Ġradi": 1618,
      "bs": 1619,
      "Ġsocial": 1620,
      "Ġep": 1621,
      "Ġlocal": 1622,
      "Ġconditions": 1623,
      "Ġprovid": 1624,
      "||": 1625,
      "eral": 1626,
      "quen": 1627,
      "ique": 1628,
      "ource": 1629,
      "Ġeng": 1630,
      "ug": 1631,
      "Ġreact": 1632,
      "Ġche": 1633,
      "Ġbenef": 1634,
      "ĠIs": 1635,
      "Ġorder": 1636,
      "Ġbest": 1637,
      "ification": 1638,
      ".,": 1639,
      "Ġtop": 1640,
      "ĠEx": 1641,
      "Ġrespons": 1642,
      "Ġprom": 1643,
      "Ġlearning": 1644,
      "az": 1645,
      "Ġfactors": 1646,
      "Ġmeans": 1647,
      "We": 1648,
      "ĠUniversity": 1649,
      "Ġ+": 1650,
      "Ġpopulation": 1651,
      "ĠEng": 1652,
      "Ġpass": 1653,
      "Ġwant": 1654,
      "ills": 1655,
      "Ġgrowth": 1656,
      "It": 1657,
      "Ġnear": 1658,
      "ĠAnd": 1659,
      "ware": 1660,
      "Ġmove": 1661,
      "Ġstat": 1662,
      "Ġmechan": 1663,
      "Ġareas": 1664,
      "Ġhim": 1665,
      "Ġanother": 1666,
      "ĠCl": 1667,
      "ĠAmerican": 1668,
      "ĠâĢĺ": 1669,
      "por": 1670,
      "Ġfac": 1671,
      "Ġ199": 1672,
      "ime": 1673,
      "Ġinterest": 1674,
      "Ġcir": 1675,
      "Ġsam": 1676,
      "Ġbecome": 1677,
      "ah": 1678,
      "oint": 1679,
      "ĠWhen": 1680,
      "Ġeffective": 1681,
      "Ġox": 1682,
      "ĠPh": 1683,
      "Ġlo": 1684,
      "Ġlast": 1685,
      "asing": 1686,
      "Ġtiss": 1687,
      "ples": 1688,
      "Ġpressure": 1689,
      "ention": 1690,
      "ina": 1691,
      "ians": 1692,
      "Ġimprove": 1693,
      "ocus": 1694,
      "ton": 1695,
      "oma": 1696,
      "ended": 1697,
      "Ġyoung": 1698,
      "orth": 1699,
      "Ġdemon": 1700,
      "ead": 1701,
      "ival": 1702,
      "agement": 1703,
      "Ġsuccess": 1704,
      "Ġtotal": 1705,
      "urop": 1706,
      "Ġtimes": 1707,
      "Ġcomput": 1708,
      "iness": 1709,
      "elf": 1710,
      "Ġplant": 1711,
      "Ġcontain": 1712,
      "Ġsymptoms": 1713,
      "Ġcost": 1714,
      "Ġfree": 1715,
      "Ġorig": 1716,
      "ores": 1717,
      "'t": 1718,
      "here": 1719,
      "Ġtemper": 1720,
      "Ġimpact": 1721,
      "Ġresponse": 1722,
      "Ġamount": 1723,
      "dition": 1724,
      "ones": 1725,
      "Ġunt": 1726,
      "man": 1727,
      "Ġdemonstr": 1728,
      "Ġopen": 1729,
      "eed": 1730,
      "Ġcard": 1731,
      "Ġshort": 1732,
      "Ġmil": 1733,
      ".\"": 1734,
      "Ġopt": 1735,
      "ertain": 1736,
      "Ġavailable": 1737,
      "Ġopp": 1738,
      "ung": 1739,
      "Ġbir": 1740,
      "Ġmar": 1741,
      "itor": 1742,
      "mit": 1743,
      "els": 1744,
      "anc": 1745,
      "Ġappear": 1746,
      "omic": 1747,
      "Ġbelie": 1748,
      "Ġscient": 1749,
      "What": 1750,
      "Ġer": 1751,
      "ably": 1752,
      "amin": 1753,
      "ocy": 1754,
      "Ġable": 1755,
      "ĠQ": 1756,
      "Ġinflu": 1757,
      "Ġpoly": 1758,
      "ised": 1759,
      "Ġhead": 1760,
      "Ġhere": 1761,
      "Ġauth": 1762,
      "Ġmot": 1763,
      "Ġexpression": 1764,
      "Ġcomplex": 1765,
      "Ġlater": 1766,
      "ances": 1767,
      "Ġcrit": 1768,
      "Ġstandard": 1769,
      "Ġdeath": 1770,
      "Ġreal": 1771,
      "Ġpa": 1772,
      "duct": 1773,
      "Ġproblems": 1774,
      "Ġleg": 1775,
      "sc": 1776,
      "Ġdiscuss": 1777,
      "Ġweight": 1778,
      "Ġkeep": 1779,
      "Ġadult": 1780,
      "use": 1781,
      "itis": 1782,
      "ories": 1783,
      "Ġdeveloped": 1784,
      "Ġart": 1785,
      "50": 1786,
      "Ġsingle": 1787,
      "ĠWh": 1788,
      "fer": 1789,
      "Ġartic": 1790,
      "ĠUnited": 1791,
      "sp": 1792,
      "ote": 1793,
      "Ġmonths": 1794,
      "ring": 1795,
      "Ġecon": 1796,
      "12": 1797,
      "Ġexperim": 1798,
      "Ġ17": 1799,
      "ĠPl": 1800,
      "over": 1801,
      "Ġlangu": 1802,
      "Ġrecord": 1803,
      "Ġfore": 1804,
      "SA": 1805,
      "Ġrepres": 1806,
      "nces": 1807,
      "Ġline": 1808,
      "Ġvarious": 1809,
      "sych": 1810,
      "stit": 1811,
      "oles": 1812,
      "ae": 1813,
      "Ġfocus": 1814,
      "ĠâĢĶ": 1815,
      "Ġapplic": 1816,
      "ik": 1817,
      "Ġsince": 1818,
      "Ġtoo": 1819,
      "be": 1820,
      "Ġrelations": 1821,
      "ĠSe": 1822,
      "Ġabs": 1823,
      "iple": 1824,
      "ribut": 1825,
      "ling": 1826,
      "Ġ16": 1827,
      "port": 1828,
      "Ġobserved": 1829,
      "icult": 1830,
      "Ġsystems": 1831,
      "Ġ30": 1832,
      "Ġstrong": 1833,
      "cell": 1834,
      "ales": 1835,
      "olution": 1836,
      "/-": 1837,
      "ern": 1838,
      "Ġaccess": 1839,
      "ronic": 1840,
      "omm": 1841,
      "Ġdepend": 1842,
      "Ġfin": 1843,
      "Ġey": 1844,
      "ĠCol": 1845,
      "Ġleft": 1846,
      "ately": 1847,
      "ĠAll": 1848,
      "Ġlikely": 1849,
      "ĠCan": 1850,
      "Ġinit": 1851,
      "ĠZ": 1852,
      "Ġur": 1853,
      "ots": 1854,
      "Ġrange": 1855,
      "Ġfil": 1856,
      "oper": 1857,
      "Ġdam": 1858,
      "Ġess": 1859,
      "Ġhyp": 1860,
      "Ġproblem": 1861,
      "ography": 1862,
      "ours": 1863,
      "Ġtherapy": 1864,
      "Ġgiven": 1865,
      "ĠSh": 1866,
      "Ġwar": 1867,
      "Ġsurface": 1868,
      "Ġrelated": 1869,
      "ication": 1870,
      "Ġcomplete": 1871,
      "Ġfeel": 1872,
      "ploy": 1873,
      "Ġloss": 1874,
      "app": 1875,
      "ler": 1876,
      "ank": 1877,
      "Ġhapp": 1878,
      "Ġsw": 1879,
      "Ġconn": 1880,
      "Ġnatural": 1881,
      "Ġ&": 1882,
      "Ġeffic": 1883,
      "ored": 1884,
      "Ġcourse": 1885,
      "yn": 1886,
      "Ġill": 1887,
      "olic": 1888,
      "Ġeither": 1889,
      "tained": 1890,
      "Ġsurv": 1891,
      "Ġinteract": 1892,
      "vere": 1893,
      "Ġothers": 1894,
      "atures": 1895,
      "Ġtypes": 1896,
      "Ġlittle": 1897,
      "Ġevidence": 1898,
      "rag": 1899,
      "uture": 1900,
      "Ġproject": 1901,
      "ode": 1902,
      "Ġcreat": 1903,
      "work": 1904,
      "Ġreview": 1905,
      "istic": 1906,
      "Ġenc": 1907,
      "omes": 1908,
      "minist": 1909,
      "Ġsays": 1910,
      "ledge": 1911,
      "Ġclear": 1912,
      "acc": 1913,
      "aken": 1914,
      "Ġwhether": 1915,
      "ators": 1916,
      "As": 1917,
      "aps": 1918,
      "Ġfurther": 1919,
      "Ġname": 1920,
      "tes": 1921,
      ",\"": 1922,
      "rim": 1923,
      "Ġinj": 1924,
      "Ġcertain": 1925,
      "Ġrun": 1926,
      "ĠStates": 1927,
      "ash": 1928,
      "Ġhyper": 1929,
      "Ġestab": 1930,
      "hel": 1931,
      "Ġparent": 1932,
      "ruction": 1933,
      "Ġ14": 1934,
      "Ġprevious": 1935,
      "Ġet": 1936,
      "ont": 1937,
      "Ġmole": 1938,
      "Ġeducation": 1939,
      "Ġconsum": 1940,
      "osph": 1941,
      "Ġpattern": 1942,
      "Ġneg": 1943,
      "urope": 1944,
      "Ġstress": 1945,
      "Ġreported": 1946,
      "ibility": 1947,
      "Ġexperience": 1948,
      "Ġmedical": 1949,
      "ument": 1950,
      "ĠOn": 1951,
      "Ġ.": 1952,
      "Ġpredict": 1953,
      "pecially": 1954,
      "Ġlaw": 1955,
      "Ġsay": 1956,
      "ĠCent": 1957,
      "Ġfail": 1958,
      "Ġhard": 1959,
      "rid": 1960,
      "aging": 1961,
      "Ġgeneral": 1962,
      "Ġgovernment": 1963,
      "Ġz": 1964,
      "Ġdifficult": 1965,
      "Ġquality": 1966,
      "Ġmass": 1967,
      "Ġleast": 1968,
      "Ġvit": 1969,
      "Ġview": 1970,
      "%)": 1971,
      "verage": 1972,
      "Ġdisord": 1973,
      "Ġbus": 1974,
      "Ġ11": 1975,
      "Ġlist": 1976,
      "chie": 1977,
      "acy": 1978,
      "Ġhowever": 1979,
      "Ġthings": 1980,
      "Ġstructure": 1981,
      "ained": 1982,
      "Ġskin": 1983,
      "Ġbro": 1984,
      "Ġusually": 1985,
      "put": 1986,
      "Ġfib": 1987,
      "Ġphot": 1988,
      "roll": 1989,
      "Ġalong": 1990,
      "Ġphysical": 1991,
      "Ġrelationship": 1992,
      "Ġfem": 1993,
      "Ġcho": 1994,
      "Ġacross": 1995,
      "Ġcarb": 1996,
      "Ġproduction": 1997,
      "Ġseem": 1998,
      "Ġput": 1999,
      "ortun": 2000,
      "apt": 2001,
      "Ġparticip": 2002,
      "rist": 2003,
      "Ġpositive": 2004,
      "Ġactivities": 2005,
      "Ġmor": 2006,
      "arget": 2007,
      "Ġresearc": 2008,
      "ats": 2009,
      "ames": 2010,
      "Ġfar": 2011,
      "Ġ<": 2012,
      "roph": 2013,
      "ĠNational": 2014,
      "ensive": 2015,
      "Ġsize": 2016,
      "Ġtool": 2017,
      "lected": 2018,
      "agn": 2019,
      "Ġreve": 2020,
      "Ġcommunity": 2021,
      "Ġuntil": 2022,
      "obal": 2023,
      "Ġtru": 2024,
      "ĠMed": 2025,
      "Ġturn": 2026,
      "If": 2027,
      "Ġcountry": 2028,
      "ĠEn": 2029,
      "Ġkey": 2030,
      "Ġmaking": 2031,
      "Ġhealthy": 2032,
      "alf": 2033,
      "aring": 2034,
      "ĠII": 2035,
      "ape": 2036,
      "Ġspace": 2037,
      "ann": 2038,
      "Ġself": 2039,
      "Ġdiet": 2040,
      "ps": 2041,
      "Ġapproach": 2042,
      "Ġfive": 2043,
      "imes": 2044,
      "Ġside": 2045,
      "Ġsite": 2046,
      "ectively": 2047,
      "Ġgene": 2048,
      "most": 2049,
      "18": 2050,
      "Ġpast": 2051,
      "St": 2052,
      "Ġspecial": 2053,
      "Ġanimals": 2054,
      "Ġ13": 2055,
      "Ġvalue": 2056,
      "ĠEurope": 2057,
      "reg": 2058,
      "related": 2059,
      "Ġachie": 2060,
      "ables": 2061,
      "fact": 2062,
      "Ġprofess": 2063,
      "To": 2064,
      "Ġneeds": 2065,
      "ĠAf": 2066,
      "iting": 2067,
      "lement": 2068,
      "Ġcome": 2069,
      "Ġtechnology": 2070,
      "pos": 2071,
      "based": 2072,
      "ands": 2073,
      "Ġmillion": 2074,
      "verse": 2075,
      "Ġlanguage": 2076,
      "ray": 2077,
      "Ġchall": 2078,
      "Ġnet": 2079,
      "Ġplants": 2080,
      "Ġespecially": 2081,
      "ns": 2082,
      "Ġlet": 2083,
      "Ġfuture": 2084,
      "rans": 2085,
      "Ġanti": 2086,
      "Ġnuc": 2087,
      "Ġanaly": 2088,
      "Ġtoget": 2089,
      "Ġsal": 2090,
      "Ġtogether": 2091,
      "ilities": 2092,
      "ires": 2093,
      "rams": 2094,
      "ressed": 2095,
      "ather": 2096,
      "Ġbook": 2097,
      "ĠTe": 2098,
      "Ġstep": 2099,
      "Ġperformed": 2100,
      "Ġexist": 2101,
      "Ġdom": 2102,
      "ured": 2103,
      "Ġdem": 2104,
      "ison": 2105,
      "Ġnut": 2106,
      "Ġgreater": 2107,
      "ections": 2108,
      "ounds": 2109,
      "ilt": 2110,
      "ites": 2111,
      "Ġprob": 2112,
      "aster": 2113,
      "ĠBe": 2114,
      "Ġmanagement": 2115,
      "erve": 2116,
      "idd": 2117,
      "like": 2118,
      "Ġap": 2119,
      "Ġnecess": 2120,
      "Ġplac": 2121,
      "abet": 2122,
      "Ġprimary": 2123,
      "Ġseen": 2124,
      "gery": 2125,
      "Ġcreate": 2126,
      "term": 2127,
      "Ġstim": 2128,
      "Ġteac": 2129,
      "Ġtoday": 2130,
      "itud": 2131,
      "anced": 2132,
      "Ġconsidered": 2133,
      "Ġtarget": 2134,
      "erence": 2135,
      "How": 2136,
      "Ġrepresent": 2137,
      "ĠWith": 2138,
      "Ġconsider": 2139,
      "oot": 2140,
      "Ġexc": 2141,
      "Ġrequire": 2142,
      "ension": 2143,
      "cin": 2144,
      "Ġ'": 2145,
      "ule": 2146,
      "isc": 2147,
      "Ġrelative": 2148,
      "Ġpaper": 2149,
      "There": 2150,
      "Ġ50": 2151,
      "Ġknowledge": 2152,
      "af": 2153,
      "Ġdig": 2154,
      "ĠEar": 2155,
      "Ġinfection": 2156,
      "aves": 2157,
      "Ġcountries": 2158,
      "Ġgr": 2159,
      "Ġabove": 2160,
      "oks": 2161,
      "Ġregion": 2162,
      "urs": 2163,
      "ependent": 2164,
      "11": 2165,
      "raw": 2166,
      "otic": 2167,
      "oly": 2168,
      "Ġantib": 2169,
      "Ġcolle": 2170,
      "Ġexerc": 2171,
      "rast": 2172,
      "Ġalways": 2173,
      "Ġmethods": 2174,
      "Ġproducts": 2175,
      "orts": 2176,
      "lor": 2177,
      "Ġgive": 2178,
      "Ġfindings": 2179,
      "Ġsuper": 2180,
      "Ġteam": 2181,
      "ulated": 2182,
      "Ġut": 2183,
      "Ġhaving": 2184,
      "Ġ$": 2185,
      "Ġaccording": 2186,
      "ips": 2187,
      "unt": 2188,
      "Ġrecogn": 2189,
      "Ġtissue": 2190,
      "ope": 2191,
      "Ġwhy": 2192,
      "Ġsomething": 2193,
      "Ġsum": 2194,
      "Ġwords": 2195,
      "Ġproced": 2196,
      "ĠWhat": 2197,
      "Ġbegin": 2198,
      "ipp": 2199,
      "Ġresist": 2200,
      "Ġrecept": 2201,
      "pha": 2202,
      "Ġcaused": 2203,
      "leep": 2204,
      "Ġtext": 2205,
      "Ġworking": 2206,
      "zym": 2207,
      "Ġability": 2208,
      "Ġquestion": 2209,
      "Ġbacter": 2210,
      "ects": 2211,
      "Ġconduct": 2212,
      "Ġeff": 2213,
      "rect": 2214,
      "orld": 2215,
      "Ġrequired": 2216,
      "Ġdetermine": 2217,
      "Ġfactor": 2218,
      "ĠDNA": 2219,
      "Ġcondition": 2220,
      "eter": 2221,
      "Ġcoll": 2222,
      "Ġreduce": 2223,
      "Ġconcer": 2224,
      "Ġfull": 2225,
      "Ġwide": 2226,
      "Ġcentury": 2227,
      "Ġincreasing": 2228,
      "not": 2229,
      "ascular": 2230,
      "Ġdifferences": 2231,
      "irm": 2232,
      "Ġaccount": 2233,
      "Ġnext": 2234,
      "Ġtreated": 2235,
      "Ġadminist": 2236,
      "imal": 2237,
      "Ġfield": 2238,
      "istics": 2239,
      "ĠHealth": 2240,
      "ype": 2241,
      "Ġ+/-": 2242,
      "Ġstrateg": 2243,
      "lo": 2244,
      "Ġshown": 2245,
      "Ġbehavior": 2246,
      "Ġdog": 2247,
      "Ġrespectively": 2248,
      "Ġarter": 2249,
      "ged": 2250,
      "pr": 2251,
      "Ġcle": 2252,
      "Ġrepl": 2253,
      "Ġrecomm": 2254,
      "Ġimpl": 2255,
      "ĠOr": 2256,
      "Ġpresence": 2257,
      "Ġpsych": 2258,
      "Ġmov": 2259,
      "for": 2260,
      "by": 2261,
      "ĠAfric": 2262,
      "Ġhydro": 2263,
      "Ġcardi": 2264,
      "ume": 2265,
      "Ġ100": 2266,
      "Ġclose": 2267,
      "astic": 2268,
      "ĠIm": 2269,
      "rations": 2270,
      "Ġreveal": 2271,
      "aching": 2272,
      "ĠX": 2273,
      "Ġcontinu": 2274,
      "ends": 2275,
      "An": 2276,
      "15": 2277,
      "Ġtry": 2278,
      "go": 2279,
      "Ġresearchers": 2280,
      "Ġmut": 2281,
      "ribution": 2282,
      "Ġactive": 2283,
      "ospital": 2284,
      "Ġintra": 2285,
      "ĠOne": 2286,
      "Ġways": 2287,
      "Ġsimple": 2288,
      "let": 2289,
      "pro": 2290,
      "Ġcompon": 2291,
      "Ġvalues": 2292,
      "inary": 2293,
      "Ġver": 2294,
      "arb": 2295,
      "osure": 2296,
      "Ġkind": 2297,
      "Ġcontent": 2298,
      "Ġlay": 2299,
      "Ġvers": 2300,
      "Ġbelow": 2301,
      "Ġincluded": 2302,
      "aut": 2303,
      "Ġtemperature": 2304,
      "Ġaim": 2305,
      "Ġsoci": 2306,
      "ties": 2307,
      "pat": 2308,
      "Ġask": 2309,
      "Ġred": 2310,
      "isms": 2311,
      "Ġtoward": 2312,
      "ird": 2313,
      "Ġreduced": 2314,
      "Ġchemical": 2315,
      "Ġsitu": 2316,
      "Ġpractice": 2317,
      "Ġhem": 2318,
      "ges": 2319,
      "Ġweek": 2320,
      "Ġsex": 2321,
      "ember": 2322,
      "ried": 2323,
      "Ch": 2324,
      "Ġenough": 2325,
      "sw": 2326,
      "rate": 2327,
      "Ġarticle": 2328,
      "Ġdifference": 2329,
      "ĠAfter": 2330,
      "Ġstudied": 2331,
      "Ġconsist": 2332,
      "Ġinvolved": 2333,
      "30": 2334,
      "Ġvirus": 2335,
      "Ġsevere": 2336,
      "Ġemploy": 2337,
      "lying": 2338,
      "inding": 2339,
      "Ġworks": 2340,
      "Ġunderstanding": 2341,
      "rict": 2342,
      "utes": 2343,
      "Ġliter": 2344,
      "izing": 2345,
      "Ġ24": 2346,
      "Ġintrodu": 2347,
      "year": 2348,
      "Ġauthor": 2349,
      "Ġbecame": 2350,
      "Ġconc": 2351,
      "Ġcirc": 2352,
      "Ġfund": 2353,
      "ils": 2354,
      "--": 2355,
      "ients": 2356,
      "Ġsix": 2357,
      "Ġmedic": 2358,
      "itation": 2359,
      "Ġquant": 2360,
      "Ġdiagnosis": 2361,
      "ĠUS": 2362,
      "ĠSome": 2363,
      "Ġrates": 2364,
      "gest": 2365,
      "hesis": 2366,
      "ulations": 2367,
      "Ġplas": 2368,
      "Ġprovides": 2369,
      "Ġregard": 2370,
      "ER": 2371,
      "lamm": 2372,
      "Ġsource": 2373,
      "Ġ25": 2374,
      "ancy": 2375,
      "Ġaway": 2376,
      "Ġcut": 2377,
      "ĠSo": 2378,
      "ĠBl": 2379,
      "emic": 2380,
      "Ġidentify": 2381,
      "Ġneu": 2382,
      "ĠStud": 2383,
      "ney": 2384,
      "Ġskills": 2385,
      "Ġmakes": 2386,
      "rome": 2387,
      "ream": 2388,
      "ĠLe": 2389,
      "Ġobject": 2390,
      "ĠÂ": 2391,
      "Ġconcept": 2392,
      "Ġisol": 2393,
      "Ġlink": 2394,
      "lex": 2395,
      "oney": 2396,
      "Ġlive": 2397,
      "Ġsepar": 2398,
      "rad": 2399,
      "Ġsurgery": 2400,
      "aged": 2401,
      "Ġessential": 2402,
      "ength": 2403,
      "ask": 2404,
      "iation": 2405,
      "Ġrats": 2406,
      "ief": 2407,
      "ĠGod": 2408,
      "pid": 2409,
      "abetes": 2410,
      "For": 2411,
      "Ġscience": 2412,
      "raction": 2413,
      "Ġidentified": 2414,
      "Ġmetab": 2415,
      "iency": 2416,
      "ymph": 2417,
      "cri": 2418,
      "side": 2419,
      "Ġaverage": 2420,
      "Ġens": 2421,
      "Ġsynt": 2422,
      "selves": 2423,
      "ials": 2424,
      "__": 2425,
      "Ġwhole": 2426,
      "bo": 2427,
      "ening": 2428,
      "Ġpolit": 2429,
      "14": 2430,
      "oman": 2431,
      "mun": 2432,
      "ensity": 2433,
      "Ġexperien": 2434,
      "13": 2435,
      "Ġweeks": 2436,
      "Ġhouse": 2437,
      "Ġfamil": 2438,
      "Ġfeed": 2439,
      "Ġwhite": 2440,
      "Ġevent": 2441,
      "val": 2442,
      "Ġnever": 2443,
      "Ġmuscle": 2444,
      "Ġbone": 2445,
      "Ġhalf": 2446,
      "Ġground": 2447,
      "AT": 2448,
      "Ġdetail": 2449,
      "Ġbig": 2450,
      "âĢĵ": 2451,
      "Ġrather": 2452,
      "imately": 2453,
      "Ġtumor": 2454,
      "ES": 2455,
      "Ġrecent": 2456,
      "16": 2457,
      "Ġsoft": 2458,
      "Ġemer": 2459,
      "ĠEnglish": 2460,
      "Ġdiseases": 2461,
      "Ġresources": 2462,
      "Ġclimate": 2463,
      "Ġmaterials": 2464,
      "aily": 2465,
      "Ġlot": 2466,
      "Ġemb": 2467,
      "Ġast": 2468,
      "Ġbusiness": 2469,
      "Ġhours": 2470,
      "ned": 2471,
      "mission": 2472,
      "Ġpublished": 2473,
      "Ġang": 2474,
      "Ġsubst": 2475,
      "Ġsubjects": 2476,
      "bran": 2477,
      "ctions": 2478,
      "Ġtradition": 2479,
      "ready": 2480,
      "Ġindividuals": 2481,
      "Ġnegative": 2482,
      "Ġfall": 2483,
      "Ġneeded": 2484,
      "Ġmg": 2485,
      "Ġtaken": 2486,
      "ĠBrit": 2487,
      "PA": 2488,
      "ĠChrist": 2489,
      "Ġspect": 2490,
      "light": 2491,
      "Ġmultiple": 2492,
      "Ġcompar": 2493,
      "Ġissues": 2494,
      "Ġmal": 2495,
      "Ġestim": 2496,
      "Ġperformance": 2497,
      "Ġmeasured": 2498,
      "aneous": 2499,
      "Ġstory": 2500,
      "indu": 2501,
      "Ġconcentration": 2502,
      "Ġdone": 2503,
      "Ġreason": 2504,
      "IV": 2505,
      "Ġdoct": 2506,
      "Ġgas": 2507,
      "aling": 2508,
      "Ġsat": 2509,
      "ĠBy": 2510,
      "mb": 2511,
      "Ġglobal": 2512,
      "Ġproduced": 2513,
      "operative": 2514,
      "Ġsleep": 2515,
      "thing": 2516,
      "Ġenh": 2517,
      "Ġquestions": 2518,
      "17": 2519,
      "Ġobtained": 2520,
      "When": 2521,
      "Ġliving": 2522,
      "Ġasp": 2523,
      "Ġenzym": 2524,
      "Ġcomputer": 2525,
      "atter": 2526,
      "Ġgoing": 2527,
      "Ġprec": 2528,
      "Ġcity": 2529,
      "Ġintern": 2530,
      "atch": 2531,
      "imum": 2532,
      "uk": 2533,
      "artment": 2534,
      "Ġavoid": 2535,
      "eration": 2536,
      "aly": 2537,
      "Ġann": 2538,
      "Ġstudent": 2539,
      "Ġdamage": 2540,
      "Ġdoc": 2541,
      "Ġword": 2542,
      "Ġalmost": 2543,
      "Ġpregn": 2544,
      "Ġcomplic": 2545,
      "Ġsure": 2546,
      "Ġir": 2547,
      "raft": 2548,
      "Ġtraining": 2549,
      "Ġcauses": 2550,
      "ulf": 2551,
      "ĠWorld": 2552,
      "ĠNe": 2553,
      "ott": 2554,
      "Ġalready": 2555,
      "ino": 2556,
      "Ġfish": 2557,
      "come": 2558,
      "Ġnature": 2559,
      "Ġmagn": 2560,
      "rated": 2561,
      "Al": 2562,
      "Ġlip": 2563,
      "ump": 2564,
      "Ġproduce": 2565,
      "Ġmind": 2566,
      "urity": 2567,
      "vey": 2568,
      "05": 2569,
      "Ġport": 2570,
      "ĠDr": 2571,
      "ches": 2572,
      "ĠNo": 2573,
      "ĠCal": 2574,
      "Ġge": 2575,
      "Ġbuilding": 2576,
      "overy": 2577,
      "Ġaction": 2578,
      "ste": 2579,
      "ww": 2580,
      "Ġdescribed": 2581,
      "Ġheat": 2582,
      "Ġappl": 2583,
      "ules": 2584,
      "ĠGerm": 2585,
      "Ġchronic": 2586,
      "ese": 2587,
      "utions": 2588,
      "Ġpolic": 2589,
      "quently": 2590,
      "Ġliver": 2591,
      "Ġvi": 2592,
      "Ġsubject": 2593,
      "earch": 2594,
      "Ġcop": 2595,
      "ystem": 2596,
      "ising": 2597,
      "Ġwr": 2598,
      "ĠCO": 2599,
      "ĠWar": 2600,
      "Ġculture": 2601,
      "Ġhighly": 2602,
      "Ġanalyz": 2603,
      "reme": 2604,
      "Ġlymph": 2605,
      "Ġphosph": 2606,
      "Ġpul": 2607,
      "Ġexposure": 2608,
      "Ġsuccessful": 2609,
      "Ġcreated": 2610,
      "Ġslow": 2611,
      "Ġopportun": 2612,
      "Ġparents": 2613,
      "Ġenvironmental": 2614,
      "Ġcross": 2615,
      "Ġult": 2616,
      "Ġsun": 2617,
      "oon": 2618,
      "inter": 2619,
      "Ġwind": 2620,
      "ery": 2621,
      "ending": 2622,
      "Ġvent": 2623,
      "Ġmembers": 2624,
      "ĠIntern": 2625,
      "Ġengine": 2626,
      "Ġprovided": 2627,
      "ĠAss": 2628,
      "rote": 2629,
      "Ġcyt": 2630,
      "Ġmice": 2631,
      "ĠThat": 2632,
      "rees": 2633,
      "aim": 2634,
      "Ġnational": 2635,
      "Ġremov": 2636,
      "Ġonce": 2637,
      "CT": 2638,
      "rior": 2639,
      "Ġx": 2640,
      "Ġshows": 2641,
      "Ġ40": 2642,
      "Ġder": 2643,
      "Ġnecessary": 2644,
      "Ġreally": 2645,
      "Ġthroughout": 2646,
      "Ġstates": 2647,
      "Ġcarbon": 2648,
      "Ġdesigned": 2649,
      "dom": 2650,
      "ley": 2651,
      "Ġupon": 2652,
      "reng": 2653,
      "Ġpoor": 2654,
      "ibr": 2655,
      "coh": 2656,
      "Ġansw": 2657,
      "ĠGo": 2658,
      "augh": 2659,
      "Ġgreen": 2660,
      "ressive": 2661,
      "Ġdecreased": 2662,
      "Ġarch": 2663,
      "Ġcontact": 2664,
      "Ġdetermined": 2665,
      "Ġproperties": 2666,
      "mber": 2667,
      "ĠAust": 2668,
      "Ġevents": 2669,
      "...": 2670,
      "II": 2671,
      "oses": 2672,
      "iddle": 2673,
      "illed": 2674,
      "onal": 2675,
      "Ġexercise": 2676,
      "Ġproteins": 2677,
      "ĠNorth": 2678,
      "Ġsafe": 2679,
      "Ġsus": 2680,
      "ency": 2681,
      "tt": 2682,
      "Ġinteg": 2683,
      "Ġblack": 2684,
      "ĠJoh": 2685,
      "Ġdose": 2686,
      "ĠEarth": 2687,
      "imens": 2688,
      "sh": 2689,
      "aries": 2690,
      "Ġfru": 2691,
      "Ġvariety": 2692,
      "ĠOur": 2693,
      "Ġreturn": 2694,
      "aches": 2695,
      "Ġvacc": 2696,
      "hood": 2697,
      "Ġposition": 2698,
      "amic": 2699,
      "opl": 2700,
      "Ġhab": 2701,
      "Ġadults": 2702,
      "Ġseries": 2703,
      "elling": 2704,
      "Ġservices": 2705,
      "Ġmax": 2706,
      "Ġrapid": 2707,
      "Ġremain": 2708,
      "Ġcolor": 2709,
      "ched": 2710,
      "ĠTw": 2711,
      "vention": 2712,
      "Ġlonger": 2713,
      "Ġdeveloping": 2714,
      "Ġactually": 2715,
      "odies": 2716,
      "Ġparts": 2717,
      "ĠAmerica": 2718,
      "hold": 2719,
      "ĠSouth": 2720,
      "Ġplasma": 2721,
      "Ġsuff": 2722,
      "Ġserum": 2723,
      "itary": 2724,
      "Ġtests": 2725,
      "Ġphen": 2726,
      "ndrome": 2727,
      "Ġmembran": 2728,
      "Ġmeet": 2729,
      "Ġuseful": 2730,
      "ographic": 2731,
      "Ġce": 2732,
      "Ġquick": 2733,
      "Ġdaily": 2734,
      "CA": 2735,
      "ĠAb": 2736,
      "Ġdiabetes": 2737,
      "Ġdispl": 2738,
      "ropri": 2739,
      "Ġthought": 2740,
      "Ġforms": 2741,
      "Ġwild": 2742,
      "erous": 2743,
      "Ġlung": 2744,
      "abor": 2745,
      "ulin": 2746,
      "Ġpoll": 2747,
      "umb": 2748,
      "Ġaddress": 2749,
      "ĠAc": 2750,
      "Ġoil": 2751,
      "25": 2752,
      "hest": 2753,
      "Ġsoil": 2754,
      "Ġ198": 2755,
      "Ġconcentrations": 2756,
      "Ġorigin": 2757,
      "othe": 2758,
      "ĠRep": 2759,
      "ened": 2760,
      "Ġprotect": 2761,
      "apan": 2762,
      "].": 2763,
      "Ġfeatures": 2764,
      "estern": 2765,
      "Ġcolon": 2766,
      "ĠGe": 2767,
      "Ġles": 2768,
      "Ġentire": 2769,
      "Ġbar": 2770,
      "na": 2771,
      "roscop": 2772,
      "Ġfrequen": 2773,
      "ura": 2774,
      "Ġsafety": 2775,
      "pose": 2776,
      "Ġsent": 2777,
      "ĠMore": 2778,
      "iques": 2779,
      "Ġtox": 2780,
      "Ġlack": 2781,
      "Ġhold": 2782,
      "acks": 2783,
      "yle": 2784,
      ".)": 2785,
      "Ġcomes": 2786,
      "uration": 2787,
      "Ġbur": 2788,
      "Ġblock": 2789,
      "Ġrevealed": 2790,
      "Ġparticularly": 2791,
      "Ġchrom": 2792,
      "ops": 2793,
      "Ġaff": 2794,
      "aff": 2795,
      "Ġstreng": 2796,
      "Ġcannot": 2797,
      "Ġbenefits": 2798,
      "Ġfollowed": 2799,
      "Ġterms": 2800,
      "ygen": 2801,
      "ĠAm": 2802,
      "Ġarr": 2803,
      "resp": 2804,
      "Ġdest": 2805,
      "Wh": 2806,
      "ccording": 2807,
      "Ġsamples": 2808,
      "ĠCont": 2809,
      "Ġreceived": 2810,
      "Ġadj": 2811,
      "Ġthemselves": 2812,
      "ĠGen": 2813,
      "Ġresid": 2814,
      "Ġlif": 2815,
      "olar": 2816,
      "Ġinfluence": 2817,
      "Ġstra": 2818,
      "Ġcalcul": 2819,
      "Ġtransport": 2820,
      "ĠAct": 2821,
      "yr": 2822,
      "Ġmodern": 2823,
      "%,": 2824,
      "Ġoffic": 2825,
      "Ġlate": 2826,
      "oll": 2827,
      "Ġreading": 2828,
      "stry": 2829,
      "Ġprol": 2830,
      "orb": 2831,
      "ĠAlthough": 2832,
      "Ġhistor": 2833,
      "OR": 2834,
      "Ġeconomic": 2835,
      "Ġter": 2836,
      "oes": 2837,
      "Ġ197": 2838,
      "Ġdrugs": 2839,
      "Ġtaking": 2840,
      "Ġtechnique": 2841,
      "Ġled": 2842,
      "Ġsites": 2843,
      "Ġbirth": 2844,
      "ID": 2845,
      "quent": 2846,
      "ush": 2847,
      "Ġprograms": 2848,
      "atives": 2849,
      "empt": 2850,
      "Ġlength": 2851,
      "och": 2852,
      "60": 2853,
      "Ġbreast": 2854,
      "ulate": 2855,
      "Ġyet": 2856,
      "know": 2857,
      "ards": 2858,
      "atric": 2859,
      "Ġsurvival": 2860,
      "ivil": 2861,
      "ĠMe": 2862,
      "cient": 2863,
      "Ġidea": 2864,
      "Ġvide": 2865,
      "Ġscreen": 2866,
      "Ġconse": 2867,
      "Ġpay": 2868,
      "Ġbreak": 2869,
      "ublic": 2870,
      "You": 2871,
      "Ġtub": 2872,
      "unction": 2873,
      "cohol": 2874,
      "Ġspread": 2875,
      "Ġdemonstrated": 2876,
      "Ġwall": 2877,
      "induced": 2878,
      "Ġprep": 2879,
      "Ġtend": 2880,
      "Ġcentral": 2881,
      "Ġregular": 2882,
      "Ġfri": 2883,
      "CR": 2884,
      "ĠCar": 2885,
      "vant": 2886,
      "Ġmodels": 2887,
      "ĠWhile": 2888,
      "Ġaltern": 2889,
      "itude": 2890,
      "ext": 2891,
      "Ġonline": 2892,
      "Ġscientists": 2893,
      "Ġi": 2894,
      "Ġincludes": 2895,
      "Ġgenetic": 2896,
      "Ġhospital": 2897,
      "Ġsqu": 2898,
      "Ġitself": 2899,
      "gar": 2900,
      "lation": 2901,
      "Ġpopular": 2902,
      "Ġeth": 2903,
      "rolled": 2904,
      "AR": 2905,
      "Ġrare": 2906,
      "ront": 2907,
      "Ġbasic": 2908,
      "Ġcame": 2909,
      "Ġtechniques": 2910,
      "Ġprinc": 2911,
      "Ġtherap": 2912,
      "Ġvia": 2913,
      "ply": 2914,
      "Ġpersonal": 2915,
      "ĠPre": 2916,
      "Ġpresented": 2917,
      "Ġestablished": 2918,
      "gical": 2919,
      "ĠHere": 2920,
      "overed": 2921,
      "osition": 2922,
      "ĠCD": 2923,
      "Ġacute": 2924,
      "Ġdegrees": 2925,
      "Ġla": 2926,
      "Ġeasy": 2927,
      "Ġreaction": 2928,
      "inf": 2929,
      "Ġgenes": 2930,
      "Ġeye": 2931,
      "Ġlabor": 2932,
      "arily": 2933,
      "ĠJapan": 2934,
      "eds": 2935,
      "uel": 2936,
      "ĠDep": 2937,
      "Ġformation": 2938,
      "Ġattention": 2939,
      "bl": 2940,
      "Ġfarm": 2941,
      "Ġinjury": 2942,
      "ging": 2943,
      "ĠShe": 2944,
      "Ġcheck": 2945,
      "rew": 2946,
      "Ġcorrel": 2947,
      "iet": 2948,
      "Ġchalleng": 2949,
      "Ġaffected": 2950,
      "Ġsyndrome": 2951,
      "Ġsust": 2952,
      "Ġaccept": 2953,
      "Ġbegan": 2954,
      "ows": 2955,
      "Ġmental": 2956,
      "âĢ¦": 2957,
      "Ġstatus": 2958,
      "Ġreduction": 2959,
      "Ġdou": 2960,
      "Ġmarket": 2961,
      "ĠCanad": 2962,
      "rown": 2963,
      "Ġanimal": 2964,
      "Ġmaintain": 2965,
      "Ġvisual": 2966,
      "Ġadditional": 2967,
      "cies": 2968,
      "Ġcritical": 2969,
      "ĠMay": 2970,
      "opt": 2971,
      "40": 2972,
      "ST": 2973,
      "Ġinflamm": 2974,
      "une": 2975,
      "Ġmale": 2976,
      "Ġserious": 2977,
      "Ġcalc": 2978,
      "ades": 2979,
      "Ġclean": 2980,
      "Ġprior": 2981,
      "Ġdeep": 2982,
      "Ġspe": 2983,
      "amine": 2984,
      "char": 2985,
      "Ġresistance": 2986,
      "Ġinject": 2987,
      "Ġimage": 2988,
      "Ġdeb": 2989,
      "Ġbab": 2990,
      "Ġstage": 2991,
      "Ġcorrect": 2992,
      "inct": 2993,
      "igen": 2994,
      "Ġever": 2995,
      "Ġmort": 2996,
      "ervation": 2997,
      "atin": 2998,
      "Ġapprox": 2999,
      "arr": 3000,
      "Ġrefer": 3001,
      "Ġmatter": 3002,
      "Ġlog": 3003,
      "ndom": 3004,
      "Ġjob": 3005,
      "urch": 3006,
      "oring": 3007,
      "Ġgluc": 3008,
      "Ġexamined": 3009,
      "Ġparam": 3010,
      "Ġbal": 3011,
      "Ġimplement": 3012,
      "Ġtook": 3013,
      "Ġcou": 3014,
      "eters": 3015,
      "Ġcontrast": 3016,
      "Ġ|": 3017,
      "Ġextra": 3018,
      "Ġgrowing": 3019,
      "pite": 3020,
      "Ġcere": 3021,
      "uries": 3022,
      "Ġservice": 3023,
      "Ġindustry": 3024,
      "uck": 3025,
      "Ġdefin": 3026,
      "Ġunique": 3027,
      "Ġrev": 3028,
      "Ġphase": 3029,
      "ĠCo": 3030,
      "ĠMan": 3031,
      "rition": 3032,
      "Ġsyn": 3033,
      "Ġmovement": 3034,
      "Ġexhib": 3035,
      "Ġnumbers": 3036,
      "Ġtalk": 3037,
      "li": 3038,
      "ournal": 3039,
      "Ġguid": 3040,
      "cles": 3041,
      "Ġfire": 3042,
      "Ġsolution": 3043,
      "Ġfoods": 3044,
      "Ġcapac": 3045,
      "Ġmach": 3046,
      "Ġextreme": 3047,
      "ĠHist": 3048,
      "Ġmusic": 3049,
      "Ġmoney": 3050,
      "IN": 3051,
      "Ġfed": 3052,
      "Ġcharacteristics": 3053,
      "formation": 3054,
      "Ġalthough": 3055,
      "Ġschools": 3056,
      "Ġnetwork": 3057,
      "ĠInstit": 3058,
      "Ġrelig": 3059,
      "Ġsources": 3060,
      "Ġec": 3061,
      "Ġdistribution": 3062,
      "Ġrights": 3063,
      "Ġeat": 3064,
      "Ġprocesses": 3065,
      "Ġbuilt": 3066,
      "Ġemot": 3067,
      "ners": 3068,
      "Ġsil": 3069,
      "Ġmother": 3070,
      "Ġoverall": 3071,
      "Ġapplication": 3072,
      "Ġtesting": 3073,
      "Ġmonitor": 3074,
      "Ġmeaning": 3075,
      "Ġarg": 3076,
      "Ġcompet": 3077,
      "Ġheav": 3078,
      "Ġperf": 3079,
      "ropriate": 3080,
      "iated": 3081,
      "Ġtravel": 3082,
      "Ġpolitical": 3083,
      "ĠPr": 3084,
      "Ġlives": 3085,
      "Ġ60": 3086,
      "Ġhelps": 3087,
      "Ġpict": 3088,
      "Ġwriting": 3089,
      "Ġrandom": 3090,
      "Ġtell": 3091,
      "Ġforce": 3092,
      "ĠGu": 3093,
      "Ġpriv": 3094,
      "Ġsense": 3095,
      "Ġste": 3096,
      "ĠSchool": 3097,
      "ĠPer": 3098,
      "ĠUs": 3099,
      "Ġprobably": 3100,
      "ai": 3101,
      "Ġgenerally": 3102,
      "Ġbacteria": 3103,
      "ĠPe": 3104,
      "Ġuses": 3105,
      ")-": 3106,
      "icity": 3107,
      "ĠInt": 3108,
      "emia": 3109,
      "Ġlimited": 3110,
      "Ġelectric": 3111,
      "Ġthus": 3112,
      "fficient": 3113,
      "ĠPat": 3114,
      "set": 3115,
      "aces": 3116,
      "ricult": 3117,
      "Ġvs": 3118,
      "Ġneur": 3119,
      "uth": 3120,
      "ĠAustral": 3121,
      "Ġcry": 3122,
      "Ġconfirm": 3123,
      "ground": 3124,
      "Ġmedia": 3125,
      "Ġrelease": 3126,
      "ached": 3127,
      "ober": 3128,
      "asis": 3129,
      "ĠState": 3130,
      "eb": 3131,
      "Ġdecrease": 3132,
      "aving": 3133,
      "issions": 3134,
      "Ġolder": 3135,
      "ĠResearch": 3136,
      "Ġcontribut": 3137,
      "Ġbasis": 3138,
      "Ġkids": 3139,
      "Ġmm": 3140,
      "water": 3141,
      "itors": 3142,
      "Ġlarger": 3143,
      "oor": 3144,
      "ĠDes": 3145,
      "Ġratio": 3146,
      "Ġbinding": 3147,
      "Ġpurpose": 3148,
      "Ġcamp": 3149,
      "Ġrespond": 3150,
      "Ġvolume": 3151,
      "Ġreceptor": 3152,
      "Ġleading": 3153,
      "Ġhom": 3154,
      "Ġfig": 3155,
      "Ġstop": 3156,
      "Ġapplied": 3157,
      "Ġ21": 3158,
      "den": 3159,
      "Ġattempt": 3160,
      "Ġimportance": 3161,
      "ecause": 3162,
      "RNA": 3163,
      "my": 3164,
      "Ġsometimes": 3165,
      "Ġpatterns": 3166,
      "Ġetc": 3167,
      "yro": 3168,
      "ĠRec": 3169,
      "Ġpreviously": 3170,
      "ufact": 3171,
      "ĠMar": 3172,
      "Ġimmedi": 3173,
      "Ġpromot": 3174,
      "Ġface": 3175,
      "Ġaware": 3176,
      "Ġmolecular": 3177,
      "Ġdirectly": 3178,
      "Ġveget": 3179,
      "Ġinvestigated": 3180,
      "ĠPres": 3181,
      "Ġjoint": 3182,
      "Ġissue": 3183,
      "Ġple": 3184,
      "ister": 3185,
      "istry": 3186,
      "Ġthird": 3187,
      "Ġimmune": 3188,
      "Ġindicate": 3189,
      "ostic": 3190,
      "Ġoxygen": 3191,
      "Ġlines": 3192,
      "Ġremains": 3193,
      "inant": 3194,
      "Ġincreases": 3195,
      "Ġfast": 3196,
      "ĠMost": 3197,
      "Ġdraw": 3198,
      "AS": 3199,
      "opath": 3200,
      "ights": 3201,
      "ender": 3202,
      "Ġfemale": 3203,
      "Ġhumans": 3204,
      "gency": 3205,
      "osing": 3206,
      "ming": 3207,
      "Ġdrink": 3208,
      "Ġminutes": 3209,
      "22": 3210,
      "Ġthreat": 3211,
      "Ġnovel": 3212,
      "Ġfunctional": 3213,
      "Ġadded": 3214,
      "Ġencou": 3215,
      "Ġselect": 3216,
      "comes": 3217,
      "ads": 3218,
      "rogen": 3219,
      "amed": 3220,
      "lands": 3221,
      "urb": 3222,
      "Ġfailure": 3223,
      "Ġtherefore": 3224,
      "But": 3225,
      "ixed": 3226,
      "AD": 3227,
      "Ġdisorders": 3228,
      "duc": 3229,
      "Ġcombination": 3230,
      "Ġalcohol": 3231,
      "ĠHis": 3232,
      "Ġwood": 3233,
      "Ġcoun": 3234,
      "Ġpoints": 3235,
      "Ġmit": 3236,
      "mic": 3237,
      "upp": 3238,
      "Ġfav": 3239,
      "roup": 3240,
      "ĠBritish": 3241,
      "Ġdocument": 3242,
      "wh": 3243,
      "Ġallows": 3244,
      "Ġbehavi": 3245,
      "Ġdetect": 3246,
      "Ġshare": 3247,
      "itivity": 3248,
      "ologic": 3249,
      "gram": 3250,
      "hetic": 3251,
      "omas": 3252,
      "Ġtrue": 3253,
      "Ġmetabol": 3254,
      "Ġnit": 3255,
      "Ġnucle": 3256,
      "Ġinduced": 3257,
      "Ġmeasures": 3258,
      "ethyl": 3259,
      "CC": 3260,
      "orph": 3261,
      "omp": 3262,
      "ĠJohn": 3263,
      "gl": 3264,
      "MP": 3265,
      "Ġkin": 3266,
      "Ġfrequency": 3267,
      "Ġsequ": 3268,
      "Ġcarcin": 3269,
      "Ġago": 3270,
      "uments": 3271,
      "Ġachieve": 3272,
      "Ġcollect": 3273,
      "Ġoutside": 3274,
      "att": 3275,
      "ĠCenter": 3276,
      "Ġwaste": 3277,
      "Ġearl": 3278,
      "Ġlocated": 3279,
      "Ġeasily": 3280,
      "ems": 3281,
      "Ġensure": 3282,
      "esis": 3283,
      "eding": 3284,
      "Ġbring": 3285,
      "Ġthing": 3286,
      "Ġtools": 3287,
      "Ġsimply": 3288,
      "Ġclaim": 3289,
      "Ġ--": 3290,
      "Ġmel": 3291,
      "iction": 3292,
      "Ġpage": 3293,
      "rence": 3294,
      "Ġoriginal": 3295,
      "Ġkid": 3296,
      "enn": 3297,
      "Ġhost": 3298,
      "Ġalone": 3299,
      "normal": 3300,
      "Ġsociety": 3301,
      "lection": 3302,
      "more": 3303,
      "Ġpric": 3304,
      "rought": 3305,
      "Ġalpha": 3306,
      "Ġves": 3307,
      "Ġspeed": 3308,
      "Ġdisorder": 3309,
      "Ġfoot": 3310,
      "odes": 3311,
      "Ġimages": 3312,
      "Ġtraditional": 3313,
      "Ġwalk": 3314,
      "ĠChina": 3315,
      "Ġcort": 3316,
      "ĠYork": 3317,
      "Ġteachers": 3318,
      "co": 3319,
      "Ġwritten": 3320,
      "org": 3321,
      "izes": 3322,
      "Ġdegree": 3323,
      "equ": 3324,
      "Ġwhereas": 3325,
      "Ġsolar": 3326,
      "uge": 3327,
      "Ġassessment": 3328,
      "oking": 3329,
      "Ġaud": 3330,
      "Ġresponses": 3331,
      "ises": 3332,
      "Ġinitial": 3333,
      "room": 3334,
      "pecific": 3335,
      "otherapy": 3336,
      "Ġevaluated": 3337,
      "AP": 3338,
      "Ġwarm": 3339,
      "Ġhar": 3340,
      "Ġinside": 3341,
      "Ġtax": 3342,
      "Ġhorm": 3343,
      "Ġtheory": 3344,
      "//": 3345,
      "asons": 3346,
      "pper": 3347,
      "ications": 3348,
      "isions": 3349,
      "ift": 3350,
      "Ġrecently": 3351,
      "001": 3352,
      "Ġbelieve": 3353,
      "onic": 3354,
      "Ġmortality": 3355,
      "Ġsuggests": 3356,
      "ĠPart": 3357,
      "Ġfamilies": 3358,
      "GF": 3359,
      "omer": 3360,
      "Ġprocedure": 3361,
      "Ġfeet": 3362,
      "ror": 3363,
      "Ġadapt": 3364,
      "Ġegg": 3365,
      "omb": 3366,
      "Ġnan": 3367,
      "Cl": 3368,
      "iter": 3369,
      "Ġdyn": 3370,
      "ls": 3371,
      "ED": 3372,
      "Ġassist": 3373,
      "Ġtransfer": 3374,
      "Ġbase": 3375,
      "Ġconducted": 3376,
      "inated": 3377,
      "ĠPar": 3378,
      "Ġinfluen": 3379,
      "ĠSec": 3380,
      "Ġoral": 3381,
      "olester": 3382,
      "Ġdry": 3383,
      "Ġcontrols": 3384,
      "oe": 3385,
      "Ġgetting": 3386,
      "ON": 3387,
      "Ġmemory": 3388,
      "Ġisolated": 3389,
      "Ġbra": 3390,
      "ching": 3391,
      "Ġmanufact": 3392,
      "hic": 3393,
      "inks": 3394,
      "undred": 3395,
      "Ġdetected": 3396,
      "Ġviol": 3397,
      "mar": 3398,
      "hemical": 3399,
      "ocytes": 3400,
      "Ġelements": 3401,
      "21": 3402,
      "rot": 3403,
      "Ġdoing": 3404,
      "ĠComp": 3405,
      "sect": 3406,
      "orpor": 3407,
      "Ġmig": 3408,
      "Ġstructures": 3409,
      "Ġmechanism": 3410,
      "ana": 3411,
      "Ġoccurred": 3412,
      "Ġbeta": 3413,
      "quences": 3414,
      "Ġcomponents": 3415,
      "Ġcompan": 3416,
      "ields": 3417,
      "ĠCount": 3418,
      "Ġregions": 3419,
      "new": 3420,
      "ĠScience": 3421,
      "Ġtakes": 3422,
      "IC": 3423,
      "IS": 3424,
      "Ġcompany": 3425,
      "iles": 3426,
      "used": 3427,
      "hens": 3428,
      "Ġmess": 3429,
      "Ġapproximately": 3430,
      "Ġsample": 3431,
      "Ġmembrane": 3432,
      "Ġinterp": 3433,
      "MS": 3434,
      "Ġ/": 3435,
      "rig": 3436,
      "leb": 3437,
      "Ġsound": 3438,
      "Ġcontains": 3439,
      "sts": 3440,
      "Ġliterature": 3441,
      "ĠFurther": 3442,
      "urrent": 3443,
      "Ġstarted": 3444,
      "AC": 3445,
      "ĠOf": 3446,
      "Ġresponsible": 3447,
      "ĠEm": 3448,
      "Ġscientific": 3449,
      "Ġtree": 3450,
      "ĠChild": 3451,
      "Ġinn": 3452,
      "Ġinstit": 3453,
      "Ġfram": 3454,
      "ĠQu": 3455,
      "ĠEuropean": 3456,
      "ying": 3457,
      "Ġfract": 3458,
      "Ġprint": 3459,
      "Ġearth": 3460,
      "Ġeight": 3461,
      "Ġsearch": 3462,
      "iot": 3463,
      "Ġcr": 3464,
      "ologies": 3465,
      "Ġdefic": 3466,
      "Ġideas": 3467,
      "ĠMin": 3468,
      "Ġsea": 3469,
      "Ġimproved": 3470,
      "Ġcontinue": 3471,
      "ĠKing": 3472,
      "rial": 3473,
      "Ġdang": 3474,
      "Ġdoctor": 3475,
      "ament": 3476,
      "Ġtested": 3477,
      "met": 3478,
      "Ġhabit": 3479,
      "medi": 3480,
      "iological": 3481,
      "lim": 3482,
      "ĠMany": 3483,
      "Ġreflect": 3484,
      "Ġrequires": 3485,
      "oster": 3486,
      "Ġoccurs": 3487,
      "Ġmid": 3488,
      "Ġcit": 3489,
      "ĠApp": 3490,
      "Ġcover": 3491,
      "Ġgly": 3492,
      "Ġbroad": 3493,
      "Ġwebs": 3494,
      "hydro": 3495,
      "Ġlooking": 3496,
      "Ġpharm": 3497,
      "Ġtrees": 3498,
      "ban": 3499,
      "Ġrenal": 3500,
      "Ġeyes": 3501,
      "Ġstay": 3502,
      "osa": 3503,
      "Ġvideo": 3504,
      "Ġgast": 3505,
      "Ġinfections": 3506,
      "Ġappropriate": 3507,
      "Ġfunctions": 3508,
      "OS": 3509,
      "rench": 3510,
      "atal": 3511,
      "://": 3512,
      "ĠCons": 3513,
      "Ġdefined": 3514,
      "itative": 3515,
      "01": 3516,
      "Ġbul": 3517,
      "Ġapplications": 3518,
      "Ġ22": 3519,
      "Ġcru": 3520,
      "Ġoutcomes": 3521,
      "arian": 3522,
      "ula": 3523,
      "ĠIndia": 3524,
      "Ġdys": 3525,
      "Ġrepe": 3526,
      "Ġsurgical": 3527,
      "Ġseems": 3528,
      "uary": 3529,
      "ĠInstitute": 3530,
      "Ġinternational": 3531,
      "Ġhypert": 3532,
      "Ġcapacity": 3533,
      "Ġnearly": 3534,
      "Ġsurvey": 3535,
      "Ġpen": 3536,
      "Ġoffer": 3537,
      "useum": 3538,
      "Ġmi": 3539,
      "ateral": 3540,
      "Ġsomeone": 3541,
      "Ġcommunities": 3542,
      "que": 3543,
      "ĠHIV": 3544,
      "ocol": 3545,
      "Ġsupply": 3546,
      "iety": 3547,
      "ively": 3548,
      "Ġlove": 3549,
      "eut": 3550,
      "ellow": 3551,
      "ET": 3552,
      "eline": 3553,
      "Ġprotection": 3554,
      "Ġdevice": 3555,
      "orks": 3556,
      "Ġelev": 3557,
      "bit": 3558,
      "plant": 3559,
      "ĠDo": 3560,
      "Ġdoesn": 3561,
      "iology": 3562,
      ");": 3563,
      "Ġstrength": 3564,
      "Ġadministration": 3565,
      "Ġteaching": 3566,
      "ta": 3567,
      "Ġexcept": 3568,
      "Ġrelatively": 3569,
      "Ġdevices": 3570,
      "AN": 3571,
      "ĠAnt": 3572,
      "ria": 3573,
      "ĠYour": 3574,
      "ocal": 3575,
      "ĠJew": 3576,
      "Ġquite": 3577,
      "iforn": 3578,
      "Ã©": 3579,
      "Ġutil": 3580,
      "Ġwhose": 3581,
      "Ġinstead": 3582,
      "Ġcapt": 3583,
      "rs": 3584,
      "Ġefficient": 3585,
      "Ex": 3586,
      "Ġnight": 3587,
      "PS": 3588,
      "thern": 3589,
      "ĠJan": 3590,
      "ster": 3591,
      "hern": 3592,
      "95": 3593,
      "rical": 3594,
      "Ġmiddle": 3595,
      "âĢ¢": 3596,
      "Ġfit": 3597,
      "Ġbenefit": 3598,
      "Ġactivation": 3599,
      "olesterol": 3600,
      "Ġdepression": 3601,
      "Ġfluid": 3602,
      "On": 3603,
      "Ġillness": 3604,
      "med": 3605,
      "Ġhundred": 3606,
      "Ġevaluate": 3607,
      "ided": 3608,
      "Ġquickly": 3609,
      "Ġthous": 3610,
      "monary": 3611,
      "iveness": 3612,
      "Ġgoal": 3613,
      "Ġappears": 3614,
      "Ġcommonly": 3615,
      "23": 3616,
      "Ġcenter": 3617,
      "ocard": 3618,
      "Ġenzyme": 3619,
      "Ġestablish": 3620,
      "known": 3621,
      "Ġ23": 3622,
      "Ġphysic": 3623,
      "EN": 3624,
      "Ġpack": 3625,
      "Ġsoftware": 3626,
      "ĠAg": 3627,
      "Ġattack": 3628,
      "enge": 3629,
      "Ġsecret": 3630,
      "Ġtowards": 3631,
      "Ġcust": 3632,
      "Ġsn": 3633,
      "Ġexpected": 3634,
      "Ġmechanisms": 3635,
      "resh": 3636,
      "Ġcommit": 3637,
      "80": 3638,
      "tical": 3639,
      "erate": 3640,
      "One": 3641,
      "cut": 3642,
      "estic": 3643,
      "Ġscale": 3644,
      "illi": 3645,
      "ĠGl": 3646,
      "life": 3647,
      "Ġbooks": 3648,
      "ancial": 3649,
      "rm": 3650,
      "Ġhor": 3651,
      "Ġhot": 3652,
      "ĠDuring": 3653,
      "Ġprincip": 3654,
      "eria": 3655,
      "Ġrad": 3656,
      "Ġworkers": 3657,
      "Ġsigns": 3658,
      "Ġhighest": 3659,
      "Ġpreval": 3660,
      "ifornia": 3661,
      "Ġagree": 3662,
      "ribute": 3663,
      "Ġglucose": 3664,
      "inate": 3665,
      "pective": 3666,
      "Ġevaluation": 3667,
      "pe": 3668,
      "rage": 3669,
      "Ġnation": 3670,
      "Ġcosts": 3671,
      "Ġlesions": 3672,
      "Ġload": 3673,
      "Ġpregnancy": 3674,
      "Ġsugar": 3675,
      "ĠSur": 3676,
      "Ġcycle": 3677,
      "He": 3678,
      "rin": 3679,
      "idity": 3680,
      "Ġconclud": 3681,
      "Ġconstant": 3682,
      "Ġbreat": 3683,
      "Ġanalys": 3684,
      "vest": 3685,
      "Ġseason": 3686,
      "Ġindex": 3687,
      "ĠEduc": 3688,
      "ĠFrom": 3689,
      "Ġrecommend": 3690,
      "orthern": 3691,
      "Ġcontext": 3692,
      "oke": 3693,
      "Ġeating": 3694,
      "hyd": 3695,
      "wise": 3696,
      "where": 3697,
      "Ġextract": 3698,
      "vious": 3699,
      "Ġvehic": 3700,
      "Ġvitro": 3701,
      "king": 3702,
      "cean": 3703,
      "Ġestimated": 3704,
      "Ġcompletely": 3705,
      "Ġsmaller": 3706,
      "oscop": 3707,
      "Ġstrategies": 3708,
      "ĠDepartment": 3709,
      "Ġdiv": 3710,
      "Ġnuclear": 3711,
      "Ġlargest": 3712,
      "Ġgard": 3713,
      "itable": 3714,
      "ingu": 3715,
      "Ġinstr": 3716,
      "ĠOther": 3717,
      "Ġbehind": 3718,
      "cil": 3719,
      "Ġ95": 3720,
      "Ġsusp": 3721,
      "Ġbeginning": 3722,
      "ze": 3723,
      "inese": 3724,
      "outhern": 3725,
      "Ġleaves": 3726,
      "uman": 3727,
      "ued": 3728,
      "Ġindustr": 3729,
      "Ġdescribe": 3730,
      "Ġexact": 3731,
      "Ġsection": 3732,
      "Ġsurround": 3733,
      "Ġanswer": 3734,
      "Ġborn": 3735,
      "Ġsustain": 3736,
      "Ġappe": 3737,
      "Ġdisplay": 3738,
      "Ġdecision": 3739,
      "Ġagg": 3740,
      "EM": 3741,
      "amb": 3742,
      "Ġcurrently": 3743,
      "200": 3744,
      "AL": 3745,
      "Ġcateg": 3746,
      "Ġoxid": 3747,
      "Ġteeth": 3748,
      "Ġpolicy": 3749,
      "Ġsuggested": 3750,
      "Ġlocation": 3751,
      "cont": 3752,
      "Ġcombined": 3753,
      "ĠDay": 3754,
      "Ġexplain": 3755,
      "Ġdark": 3756,
      "Ġmac": 3757,
      "Ġseven": 3758,
      "Ġpan": 3759,
      "Ġformed": 3760,
      "Ġbit": 3761,
      "Ġ>": 3762,
      "Ġdied": 3763,
      "Ġrang": 3764,
      "Ġinsp": 3765,
      "bol": 3766,
      "Ġmob": 3767,
      "Ġadvant": 3768,
      "Ġexpect": 3769,
      "yond": 3770,
      "Ġfa": 3771,
      "Ġones": 3772,
      "Ġnerve": 3773,
      "oming": 3774,
      "Ġinvolve": 3775,
      "Ġanx": 3776,
      "Ġcollected": 3777,
      "cial": 3778,
      "time": 3779,
      "Ġindependent": 3780,
      "joy": 3781,
      "Ġmom": 3782,
      "Ġoutcome": 3783,
      "Ġcontaining": 3784,
      "Ġpopulations": 3785,
      "Ġcommunication": 3786,
      "ĠAD": 3787,
      "Ġdiscussed": 3788,
      "Ġdogs": 3789,
      "ully": 3790,
      "Ġcarry": 3791,
      "respond": 3792,
      "Ġmill": 3793,
      "Ġshape": 3794,
      "Ġradiation": 3795,
      "ica": 3796,
      "Ġ2012": 3797,
      "Ġliqu": 3798,
      "ĠCalifornia": 3799,
      "Ġcool": 3800,
      "Ġgradu": 3801,
      "Ġelectro": 3802,
      "Ġassociation": 3803,
      "ĠReg": 3804,
      "cellular": 3805,
      "Ġnorm": 3806,
      "Ġcold": 3807,
      "ras": 3808,
      "oxid": 3809,
      "ĠAfrica": 3810,
      "ĠAfrican": 3811,
      "ef": 3812,
      "Ġparameters": 3813,
      "IT": 3814,
      "Ġ28": 3815,
      "ognitive": 3816,
      "Ġexperimental": 3817,
      "reatment": 3818,
      "Ġreach": 3819,
      "Ġproviding": 3820,
      "Ġtransl": 3821,
      "Ġprepar": 3822,
      "fort": 3823,
      "Ġtit": 3824,
      "Ġnews": 3825,
      "Ġcoron": 3826,
      "So": 3827,
      "Ġleaders": 3828,
      "Ġmajority": 3829,
      "Ġcomplications": 3830,
      "Ġgain": 3831,
      "Ġcompounds": 3832,
      "Ġresulting": 3833,
      "active": 3834,
      "Ġfront": 3835,
      "Ġanalyzed": 3836,
      "Ġtown": 3837,
      "ĠSm": 3838,
      "ha": 3839,
      "Ġwa": 3840,
      "Ġlost": 3841,
      "Ġabnormal": 3842,
      "ĠInc": 3843,
      "Ġund": 3844,
      "che": 3845,
      "24": 3846,
      "cription": 3847,
      "iate": 3848,
      "Ġharm": 3849,
      "kg": 3850,
      "haps": 3851,
      "Ġincidence": 3852,
      "Ġexposed": 3853,
      "CD": 3854,
      "Ġsecurity": 3855,
      "Ġtypically": 3856,
      "Ġfrequently": 3857,
      "Ġdecl": 3858,
      "bor": 3859,
      "Ġlimit": 3860,
      "Ġbad": 3861,
      "load": 3862,
      "Ġtrig": 3863,
      "mitted": 3864,
      "Ġautom": 3865,
      "Ġrob": 3866,
      "Ġreports": 3867,
      "ĠNot": 3868,
      "enty": 3869,
      "ĠJu": 3870,
      "Ġdat": 3871,
      "Ġmount": 3872,
      "Ġrise": 3873,
      "back": 3874,
      "can": 3875,
      "reated": 3876,
      "Ġprost": 3877,
      "ĠFrench": 3878,
      "ricular": 3879,
      "ico": 3880,
      "Ġacids": 3881,
      "ternal": 3882,
      "Ġconsumption": 3883,
      "Ġcompanies": 3884,
      "ding": 3885,
      "Ġthinking": 3886,
      "ĠMon": 3887,
      "Ġstimul": 3888,
      "Ġexperiment": 3889,
      "yroid": 3890,
      "ĠSw": 3891,
      "Ġhypot": 3892,
      "ĠThus": 3893,
      "Ġancient": 3894,
      "Ġdistinct": 3895,
      "Ġgame": 3896,
      "Ġsoon": 3897,
      "Ġhands": 3898,
      "Ġtissues": 3899,
      "Ġcardiac": 3900,
      "Ġdigital": 3901,
      "wide": 3902,
      "ĠChinese": 3903,
      "izations": 3904,
      "Ġsummer": 3905,
      "etal": 3906,
      "abil": 3907,
      "Ġparticipants": 3908,
      "Ġreli": 3909,
      "ider": 3910,
      "Ġcarried": 3911,
      "Ġproposed": 3912,
      "ashing": 3913,
      "Ġsituation": 3914,
      "Ġ80": 3915,
      "umin": 3916,
      "Ġimaging": 3917,
      "Ġconstit": 3918,
      "Ġpractices": 3919,
      "oral": 3920,
      "Ġfinal": 3921,
      "Ġaccur": 3922,
      "Ġtable": 3923,
      "chol": 3924,
      "Ġplate": 3925,
      "Ġcivil": 3926,
      "Ġlat": 3927,
      "ortion": 3928,
      "Ġice": 3929,
      "Ġreprodu": 3930,
      "hemat": 3931,
      "Ġrecorded": 3932,
      "Ġpig": 3933,
      "Ġalternative": 3934,
      "Ġneut": 3935,
      "Ġdu": 3936,
      "Ġinsulin": 3937,
      "Ġdetection": 3938,
      "ibly": 3939,
      "Ġvitamin": 3940,
      "%.": 3941,
      "Ġmis": 3942,
      "Ġunit": 3943,
      "Ġmetal": 3944,
      "Ġcrop": 3945,
      "ĠMy": 3946,
      "Ġinternal": 3947,
      "Ġauthors": 3948,
      "Ġacqu": 3949,
      "ĠAmericans": 3950,
      "Ġcalcium": 3951,
      "RI": 3952,
      "Ġvisit": 3953,
      "Ġagricult": 3954,
      "Ġefforts": 3955,
      "rec": 3956,
      "ocks": 3957,
      "cers": 3958,
      "oxide": 3959,
      "oids": 3960,
      "Ġassessed": 3961,
      "roke": 3962,
      "mosp": 3963,
      "Ġmorph": 3964,
      "Ġwrite": 3965,
      "ĠÎ": 3966,
      "ĠFin": 3967,
      "ĠFirst": 3968,
      "SD": 3969,
      "rine": 3970,
      "helial": 3971,
      "fully": 3972,
      "rog": 3973,
      "ios": 3974,
      "Ġtumors": 3975,
      "Ġartery": 3976,
      "Ġseg": 3977,
      "rolog": 3978,
      "illing": 3979,
      "ventional": 3980,
      "ĠIndian": 3981,
      "ĠCI": 3982,
      "Ġ90": 3983,
      "Ġheld": 3984,
      "ĠKe": 3985,
      "Ġ26": 3986,
      "eutic": 3987,
      "dependent": 3988,
      "Ġenjoy": 3989,
      "'re": 3990,
      "ĠPark": 3991,
      "Ġsensitivity": 3992,
      "Ġten": 3993,
      "rade": 3994,
      "ibrary": 3995,
      "Ġreasons": 3996,
      "iratory": 3997,
      "Ġelectron": 3998,
      "attle": 3999,
      "ille": 4000,
      "Ġspeak": 4001,
      "Ġreceive": 4002,
      "Ġconstruct": 4003,
      "Ġcholesterol": 4004,
      "Ġdiscovered": 4005,
      "ĠSim": 4006,
      "Ġsubse": 4007,
      "Ġindicated": 4008,
      "uls": 4009,
      "Ġweak": 4010,
      "Ġmilk": 4011,
      "alled": 4012,
      "Ġcereb": 4013,
      "raz": 4014,
      "eta": 4015,
      "Ġnutrition": 4016,
      "Ġvessel": 4017,
      "ĠSystem": 4018,
      "Ġepid": 4019,
      "ipl": 4020,
      "At": 4021,
      "Ġcreating": 4022,
      "care": 4023,
      "ript": 4024,
      "oration": 4025,
      "Ġfinancial": 4026,
      "Ġspir": 4027,
      "Ġassign": 4028,
      "Ġexplore": 4029,
      "ĠTwo": 4030,
      "ĠAssoci": 4031,
      "Ġexpress": 4032,
      "Ġslight": 4033,
      "Ġsold": 4034,
      "Ġevolution": 4035,
      "Ġmotor": 4036,
      "Ġbecomes": 4037,
      "ĠEd": 4038,
      "anish": 4039,
      "Ġgir": 4040,
      "rab": 4041,
      "iece": 4042,
      "Ġexamples": 4043,
      "Ġcomparison": 4044,
      "ference": 4045,
      "Ġcoast": 4046,
      "ĠBoth": 4047,
      "45": 4048,
      "rance": 4049,
      "going": 4050,
      "Ġplaces": 4051,
      "ĠCa": 4052,
      "Ġcorrespond": 4053,
      "Ġcred": 4054,
      "Ġbaby": 4055,
      "By": 4056,
      "cks": 4057,
      "rehens": 4058,
      "Ġhtt": 4059,
      "Ġorganic": 4060,
      "Ġiron": 4061,
      "Ġinteraction": 4062,
      "Ġdate": 4063,
      "Ġupper": 4064,
      "Ġstatist": 4065,
      "Ġthick": 4066,
      "Ġdensity": 4067,
      "Ġcommerc": 4068,
      "Ġbound": 4069,
      "ĠChar": 4070,
      "Ġmedicine": 4071,
      "Ġbiological": 4072,
      "Ġconstruction": 4073,
      "Ġ27": 4074,
      "itect": 4075,
      "odium": 4076,
      "Ġsteps": 4077,
      "Ġgeneration": 4078,
      "ĠBecause": 4079,
      "Ġregul": 4080,
      "ĠHar": 4081,
      "rum": 4082,
      "ĠBo": 4083,
      "Ġobjects": 4084,
      "Ġearlier": 4085,
      "Ġpet": 4086,
      "iar": 4087,
      "orption": 4088,
      "ĠST": 4089,
      "Ġprocedures": 4090,
      "ĠHigh": 4091,
      "Ġcontract": 4092,
      "Ġov": 4093,
      "Ġnerv": 4094,
      "Ġprojects": 4095,
      "Ġrot": 4096,
      "ovascular": 4097,
      "Ġfully": 4098,
      "icated": 4099,
      "ĠFran": 4100,
      "Ġnorth": 4101,
      "Ġ196": 4102,
      "Ġfresh": 4103,
      "oud": 4104,
      "ĠCanada": 4105,
      "airs": 4106,
      "Ġgives": 4107,
      "ifically": 4108,
      "These": 4109,
      "Ġrout": 4110,
      "Ġconver": 4111,
      "Ġenter": 4112,
      "Ġoccup": 4113,
      "ĠOver": 4114,
      "lder": 4115,
      "Ġlayer": 4116,
      "erent": 4117,
      "ivation": 4118,
      "ivo": 4119,
      "ĠMarch": 4120,
      "Ġexperiments": 4121,
      "Ġax": 4122,
      "ĠSince": 4123,
      "Ġceleb": 4124,
      "ĠTherefore": 4125,
      "Ġsett": 4126,
      "ĠInternational": 4127,
      "Ġsequence": 4128,
      "Ġexpressed": 4129,
      "Ġselected": 4130,
      "Ġusers": 4131,
      "Ġpeak": 4132,
      "Ġwinter": 4133,
      "Ġrespect": 4134,
      "Ġprofessional": 4135,
      "90": 4136,
      "Ġfuel": 4137,
      "Ġexcess": 4138,
      "Ġsignal": 4139,
      "Ġnutri": 4140,
      "Ġelement": 4141,
      "Ġball": 4142,
      "Ġplaced": 4143,
      "cript": 4144,
      "Ph": 4145,
      "CO": 4146,
      "Ġdim": 4147,
      "Ġprogress": 4148,
      "):": 4149,
      "ogenic": 4150,
      "Ġmarked": 4151,
      "kin": 4152,
      "ĠTrans": 4153,
      "Ġdemand": 4154,
      "Ġmiles": 4155,
      "35": 4156,
      "part": 4157,
      "ipment": 4158,
      "Ġeffort": 4159,
      "Ġroot": 4160,
      "Ġmo": 4161,
      "ĠJune": 4162,
      "Ġchallenge": 4163,
      "ĠHer": 4164,
      "ĠRiver": 4165,
      "Ġvary": 4166,
      "Ġfert": 4167,
      "Ġfight": 4168,
      "ĠAug": 4169,
      "Ġ2010": 4170,
      "Ġdistance": 4171,
      "Ġbeyond": 4172,
      "uff": 4173,
      "ĠGreat": 4174,
      "Ġsecondary": 4175,
      "Ġstandards": 4176,
      "Ġalg": 4177,
      "Ġbirds": 4178,
      "Ġmilitary": 4179,
      "rates": 4180,
      "isation": 4181,
      "Ġincorpor": 4182,
      "ĠGerman": 4183,
      "Ġadjust": 4184,
      "Ġtrial": 4185,
      "ests": 4186,
      "ĠOct": 4187,
      "anks": 4188,
      "Ġresulted": 4189,
      "ĠLear": 4190,
      "Ġtherm": 4191,
      "Ġcollection": 4192,
      "aught": 4193,
      "pril": 4194,
      "Ġcomponent": 4195,
      "irection": 4196,
      "clusion": 4197,
      "Ġmaximum": 4198,
      "CS": 4199,
      "Ġsouth": 4200,
      "Ġalt": 4201,
      "ĠDis": 4202,
      "âĢĿ.": 4203,
      "Ġtask": 4204,
      "elines": 4205,
      "Ġmicroscop": 4206,
      "Ġbott": 4207,
      "Ġcorrelation": 4208,
      "Ġdead": 4209,
      "Ġrecovery": 4210,
      "specific": 4211,
      "Ġelim": 4212,
      "Ġillust": 4213,
      "Ġflex": 4214,
      "ulum": 4215,
      "ĠAccording": 4216,
      "Ġbalance": 4217,
      "Ġemph": 4218,
      "het": 4219,
      "Ġwoman": 4220,
      "Ġmamm": 4221,
      "orage": 4222,
      "ĠWest": 4223,
      "ĠGree": 4224,
      "Ġcode": 4225,
      "Ġjo": 4226,
      "head": 4227,
      "Ġteacher": 4228,
      "Ġequal": 4229,
      "Ġradio": 4230,
      "omal": 4231,
      "Ġweb": 4232,
      "Ġdivid": 4233,
      "While": 4234,
      "Ġchoice": 4235,
      "Ġinteresting": 4236,
      "iring": 4237,
      "Ġaspects": 4238,
      "Ġopportunity": 4239,
      "Ġmainly": 4240,
      "Ġprivate": 4241,
      "ĠServ": 4242,
      "amer": 4243,
      "struct": 4244,
      "ĠIL": 4245,
      "ĠEach": 4246,
      "ults": 4247,
      "velopment": 4248,
      "Ġchallenges": 4249,
      "gy": 4250,
      "Ġwebsite": 4251,
      "Ġelse": 4252,
      "cules": 4253,
      "Ġallowed": 4254,
      "Ġchoose": 4255,
      "Ġweather": 4256,
      "Ġchanged": 4257,
      "Ġinvestigate": 4258,
      "icip": 4259,
      "Ġbrought": 4260,
      "Ġ35": 4261,
      "ius": 4262,
      "cal": 4263,
      "Ġmeasurements": 4264,
      "off": 4265,
      "Ġwidely": 4266,
      "Ġcand": 4267,
      "Ġvivo": 4268,
      "ĠCounty": 4269,
      "Ġsem": 4270,
      "enz": 4271,
      "ĠRuss": 4272,
      "Ġallerg": 4273,
      "Ġasked": 4274,
      "Ġnative": 4275,
      "Ġhair": 4276,
      "erved": 4277,
      "ĠpH": 4278,
      "oday": 4279,
      "romb": 4280,
      "Ġtur": 4281,
      "With": 4282,
      "aters": 4283,
      "bre": 4284,
      "Ġtold": 4285,
      "Ġsynthesis": 4286,
      "Ġbeaut": 4287,
      "Ġhepat": 4288,
      "lig": 4289,
      "Ġfrag": 4290,
      "26": 4291,
      "Ġoste": 4292,
      "Ġalter": 4293,
      "Ġoperation": 4294,
      "ĠSoci": 4295,
      "Ġimag": 4296,
      "Ġreplace": 4297,
      "Ġconvers": 4298,
      "ĠMus": 4299,
      "Ġatmosp": 4300,
      "Ġroom": 4301,
      "Ġmouth": 4302,
      "Ġadvanced": 4303,
      "27": 4304,
      "Ġliquid": 4305,
      "Ġwent": 4306,
      "Ġgot": 4307,
      "Ġinsect": 4308,
      "icate": 4309,
      "Ġchain": 4310,
      "Ġsolid": 4311,
      "DA": 4312,
      "ĠUsing": 4313,
      "Ġtrack": 4314,
      "Ġprepared": 4315,
      "Ġswe": 4316,
      "Ġreference": 4317,
      "28": 4318,
      "Ġplanet": 4319,
      "oz": 4320,
      "erior": 4321,
      "ĠPa": 4322,
      "ĠRed": 4323,
      "Ġexamination": 4324,
      "Ġinvas": 4325,
      "ĠEducation": 4326,
      "Ġcultural": 4327,
      "Ġregarding": 4328,
      "Ġtreatments": 4329,
      "Ġhous": 4330,
      "rupt": 4331,
      "Ġfruit": 4332,
      "cence": 4333,
      "Ġjud": 4334,
      "Ġmuscles": 4335,
      "Ġdiagnosed": 4336,
      "Ġanxiety": 4337,
      "Ġmonitoring": 4338,
      "Ġvision": 4339,
      "LA": 4340,
      "Ġ,": 4341,
      "ĠJanuary": 4342,
      "Ġtrend": 4343,
      "Ġfederal": 4344,
      "Ġdeal": 4345,
      "Ġforces": 4346,
      "Ġfear": 4347,
      "ceed": 4348,
      "Ġ2011": 4349,
      "Ġleads": 4350,
      "ĠEngland": 4351,
      "Is": 4352,
      "Ġcharacterized": 4353,
      "Ġmap": 4354,
      "Ġcoronary": 4355,
      "And": 4356,
      "Cs": 4357,
      "ĠNA": 4358,
      "Ġorganization": 4359,
      "Ġtemperatures": 4360,
      "itch": 4361,
      "struction": 4362,
      "ĠRead": 4363,
      "Ġcontrolled": 4364,
      "Ġsetting": 4365,
      "Ġmiss": 4366,
      "Ġplastic": 4367,
      "Ġ70": 4368,
      "ollow": 4369,
      "Ġlig": 4370,
      "cember": 4371,
      "Ġfinding": 4372,
      "ilit": 4373,
      "Ġpal": 4374,
      "uted": 4375,
      "Ġexpand": 4376,
      "Ġâ": 4377,
      "Ġrelevant": 4378,
      "Ġteach": 4379,
      "ologists": 4380,
      "Ġeducational": 4381,
      "Ġproperty": 4382,
      "Ġbillion": 4383,
      "Ġpulmonary": 4384,
      "29": 4385,
      "Ġacad": 4386,
      "ĠSept": 4387,
      "Ġstru": 4388,
      "change": 4389,
      "ida": 4390,
      "Ġgoes": 4391,
      "otyp": 4392,
      "Ġmedium": 4393,
      "Ġrecommended": 4394,
      "crib": 4395,
      "Ġcapital": 4396,
      "Ġfriends": 4397,
      "Ġpept": 4398,
      "Ġnamed": 4399,
      "semb": 4400,
      "Ġdiss": 4401,
      "Ġsexual": 4402,
      "Ad": 4403,
      "olved": 4404,
      "Ġ:": 4405,
      "inations": 4406,
      "Ġcognitive": 4407,
      "Ġefficiency": 4408,
      "Ġextent": 4409,
      "Ġblue": 4410,
      "Ġoptions": 4411,
      "order": 4412,
      "ĠHistory": 4413,
      "70": 4414,
      "abilities": 4415,
      "Ġneigh": 4416,
      "Ġ2013": 4417,
      "Ġdouble": 4418,
      "Ġbeg": 4419,
      "Ġstem": 4420,
      "Ġcontribute": 4421,
      "ĠAlso": 4422,
      "Ġemissions": 4423,
      "Ġgrade": 4424,
      "Ġrich": 4425,
      "ipher": 4426,
      "Ġdemonstrate": 4427,
      "Ġrecords": 4428,
      "Ġoffers": 4429,
      "Ġbond": 4430,
      "Ġord": 4431,
      "Ġdiagnostic": 4432,
      "Ġcitiz": 4433,
      "uses": 4434,
      "Ġtraum": 4435,
      "Ġreducing": 4436,
      "yth": 4437,
      "Ġcore": 4438,
      "Ġintake": 4439,
      "Ġtele": 4440,
      "Ġeverything": 4441,
      "Ġrelationships": 4442,
      "iers": 4443,
      "clus": 4444,
      "Ġexisting": 4445,
      "ml": 4446,
      "Ġrules": 4447,
      "ĠEven": 4448,
      "rh": 4449,
      "aced": 4450,
      "ributed": 4451,
      "Ġqual": 4452,
      "Ġcontinuous": 4453,
      "RE": 4454,
      "ĠTechn": 4455,
      "(-": 4456,
      "iny": 4457,
      "Ġplanning": 4458,
      "eech": 4459,
      "Ġepit": 4460,
      "etics": 4461,
      "icial": 4462,
      "Ġhope": 4463,
      "Ġrock": 4464,
      "Ġmoving": 4465,
      "Ġbran": 4466,
      "Ġvict": 4467,
      "Ġstrategy": 4468,
      "ĠJuly": 4469,
      "33": 4470,
      "free": 4471,
      "Ġextremely": 4472,
      "Ġson": 4473,
      "Ġprevalence": 4474,
      "Ġfavor": 4475,
      "Ġsaw": 4476,
      "Ġeveryone": 4477,
      "Ġdiam": 4478,
      "Ġequipment": 4479,
      "Ġachieved": 4480,
      "Ġscore": 4481,
      "ĠAustralia": 4482,
      "Ġnoted": 4483,
      "Ġpowerful": 4484,
      "ĠCT": 4485,
      "Ġcarcinoma": 4486,
      "ii": 4487,
      "ĠCity": 4488,
      "Ġaccum": 4489,
      "Ġconfirmed": 4490,
      "Ġuser": 4491,
      "ogenesis": 4492,
      "Ġisn": 4493,
      "Ġlinked": 4494,
      "DL": 4495,
      "apter": 4496,
      "ams": 4497,
      "100": 4498,
      "ĠCong": 4499,
      "aste": 4500,
      "Ġcycl": 4501,
      "ought": 4502,
      "ĠJes": 4503,
      "ashington": 4504,
      "Ġtom": 4505,
      "ĠMod": 4506,
      "Ġtrying": 4507,
      "Ġgave": 4508,
      "ords": 4509,
      "Ġvolunt": 4510,
      "Ġfile": 4511,
      "iest": 4512,
      "Ġimprovement": 4513,
      "ama": 4514,
      "oplas": 4515,
      "Ġcontinued": 4516,
      "asts": 4517,
      "Ġrisks": 4518,
      "Ġremained": 4519,
      "ycl": 4520,
      "Ġyourself": 4521,
      "Ġprocessing": 4522,
      "ĠWestern": 4523,
      "ologist": 4524,
      "Ġexperiences": 4525,
      "ĠSub": 4526,
      "Ġsensitive": 4527,
      "Ġkidney": 4528,
      "Res": 4529,
      "Ġden": 4530,
      "ritis": 4531,
      "Some": 4532,
      "alysis": 4533,
      "Ġnurs": 4534,
      "Ġassay": 4535,
      "Ġconflic": 4536,
      "53": 4537,
      "Ġintervention": 4538,
      "Ġcollabor": 4539,
      "Ġcausing": 4540,
      "Ġtherapeutic": 4541,
      "Ġimmediately": 4542,
      "uit": 4543,
      "Ġparticles": 4544,
      "TP": 4545,
      "Ġexcell": 4546,
      "Ġgender": 4547,
      "ĠApril": 4548,
      "Ġsolutions": 4549,
      "estinal": 4550,
      "Ġ194": 4551,
      "Ġmolecules": 4552,
      "Ġeconomy": 4553,
      "ĠUse": 4554,
      "____": 4555,
      "see": 4556,
      "book": 4557,
      "Ġduration": 4558,
      "Ġtempor": 4559,
      "Ġpow": 4560,
      "Ġamounts": 4561,
      "Ġnor": 4562,
      "ĠIg": 4563,
      "Ġpicture": 4564,
      "ĠMex": 4565,
      "ediatric": 4566,
      "Ġmachine": 4567,
      "Ġdecades": 4568,
      "Ġ2015": 4569,
      "Ġenhance": 4570,
      "AM": 4571,
      "ivery": 4572,
      "ophy": 4573,
      "Ġroad": 4574,
      "icro": 4575,
      "Ġrunning": 4576,
      "Ġstar": 4577,
      "ĠTheir": 4578,
      "Ġmember": 4579,
      "Ġcomprehens": 4580,
      "sis": 4581,
      "Ġactions": 4582,
      "ĠVal": 4583,
      "pers": 4584,
      "radi": 4585,
      "Ġfeature": 4586,
      "atically": 4587,
      "Ġguide": 4588,
      "otype": 4589,
      "Ġderived": 4590,
      "Ġunits": 4591,
      "Ġseparate": 4592,
      "Ġlaws": 4593,
      "Ġtoler": 4594,
      "Ġvirt": 4595,
      "Ġdirection": 4596,
      "HE": 4597,
      "Ġanything": 4598,
      "urally": 4599,
      "Ġintroduced": 4600,
      "Ġexperienced": 4601,
      "Ġopportunities": 4602,
      "Ġstorage": 4603,
      "Ġ29": 4604,
      "Ġinflammation": 4605,
      "ilos": 4606,
      "Ġfields": 4607,
      "Ġinteractions": 4608,
      "Ġtooth": 4609,
      "Ġpiece": 4610,
      "Ġtechnologies": 4611,
      "Ġchann": 4612,
      "Ġpret": 4613,
      "rier": 4614,
      "Ġreleased": 4615,
      "Ġperfect": 4616,
      "unch": 4617,
      "Ġbil": 4618,
      "Ġclassroom": 4619,
      "ĠDav": 4620,
      "Ġgiving": 4621,
      "Ġneurons": 4622,
      "ĠInter": 4623,
      "ĠWater": 4624,
      "Ġpurch": 4625,
      "Ġremember": 4626,
      "Ġagents": 4627,
      "aph": 4628,
      "Ġamino": 4629,
      "iment": 4630,
      "Ġconventional": 4631,
      "Ġbodies": 4632,
      "Ġextensive": 4633,
      "Ġdatab": 4634,
      "Ġstroke": 4635,
      "men": 4636,
      "Ġgold": 4637,
      "ĠAre": 4638,
      "Ġapparent": 4639,
      "ĠThen": 4640,
      "gal": 4641,
      "Ġmention": 4642,
      "Ġcompleted": 4643,
      "ĠPresident": 4644,
      "Ġinnov": 4645,
      "Ġtransform": 4646,
      "omers": 4647,
      "Ġformer": 4648,
      "Ġunc": 4649,
      "Ġreligious": 4650,
      "ĠChildren": 4651,
      "inical": 4652,
      "sec": 4653,
      "ĠDecember": 4654,
      "Ġversion": 4655,
      "Ġminor": 4656,
      "Ġstimulation": 4657,
      "Ġhighlight": 4658,
      "Ġhearing": 4659,
      "Ġaden": 4660,
      "Ġmotion": 4661,
      "Ġbed": 4662,
      "Ġattract": 4663,
      "Ġlegal": 4664,
      "Ġurban": 4665,
      "ĠAugust": 4666,
      "Ġprevention": 4667,
      "Be": 4668,
      "Ġexternal": 4669,
      "Ġrule": 4670,
      "Ġapproaches": 4671,
      "Ġwon": 4672,
      "itory": 4673,
      "36": 4674,
      "Ġcryst": 4675,
      "Ġinhibition": 4676,
      "Ġinjuries": 4677,
      "Ġassum": 4678,
      "Ġlaboratory": 4679,
      "Im": 4680,
      "Ġsac": 4681,
      "ĠSociety": 4682,
      "type": 4683,
      "Ġleave": 4684,
      "ĠEv": 4685,
      "Ġconsistent": 4686,
      "%).": 4687,
      "Pro": 4688,
      "Ġvascular": 4689,
      "ĠEl": 4690,
      "ĠVir": 4691,
      "Ġitems": 4692,
      "ovember": 4693,
      "agon": 4694,
      "Ġstaff": 4695,
      "Ġcommercial": 4696,
      "75": 4697,
      "bal": 4698,
      "Ġcm": 4699,
      "Ġstri": 4700,
      "Ġvul": 4701,
      "Ġlearned": 4702,
      "rest": 4703,
      "Ġpotentially": 4704,
      "ĠPatients": 4705,
      "ĠWashington": 4706,
      "Ġyield": 4707,
      "Ġstories": 4708,
      "Ġreactions": 4709,
      "Ġrecon": 4710,
      "eces": 4711,
      "Ġcriteria": 4712,
      "99": 4713,
      "Ġcoming": 4714,
      "Ġinfected": 4715,
      "Ġscreening": 4716,
      "Ġcorrelated": 4717,
      "Ġmoment": 4718,
      "Ġmouse": 4719,
      "Ġunderw": 4720,
      "PD": 4721,
      "otox": 4722,
      "rosis": 4723,
      "Ġfair": 4724,
      "Ġtransplant": 4725,
      "Ġ45": 4726,
      "Ġtrials": 4727,
      "Ġwond": 4728,
      "Ġsubstant": 4729,
      "Ġheavy": 4730,
      "pris": 4731,
      "Ġriver": 4732,
      "Ġemp": 4733,
      "ochemical": 4734,
      "Ġdivers": 4735,
      "Ġprolif": 4736,
      "ĠProf": 4737,
      "Ġthousands": 4738,
      "aser": 4739,
      "pped": 4740,
      "Ġsymbol": 4741,
      "olid": 4742,
      "Ġpersist": 4743,
      "Ġfilm": 4744,
      "Ġhistorical": 4745,
      "des": 4746,
      "Ġscores": 4747,
      "rich": 4748,
      "ĠUK": 4749,
      "Ġbox": 4750,
      "Ġtrade": 4751,
      "Ġcomposition": 4752,
      "38": 4753,
      "HO": 4754,
      "edom": 4755,
      "asks": 4756,
      "erences": 4757,
      "fold": 4758,
      "Ġion": 4759,
      "Ġmetast": 4760,
      "ares": 4761,
      "ĠCommun": 4762,
      "fl": 4763,
      "Ġvill": 4764,
      "craft": 4765,
      "rant": 4766,
      "ĠSan": 4767,
      "Ġarchitect": 4768,
      "CE": 4769,
      "urance": 4770,
      "Ġpathway": 4771,
      "ĠMc": 4772,
      "Ġgoals": 4773,
      "reet": 4774,
      "ĠFl": 4775,
      "Ġmanner": 4776,
      "force": 4777,
      "Ġsect": 4778,
      "Ġchance": 4779,
      "Ġble": 4780,
      "ĠEast": 4781,
      "34": 4782,
      "Ġbelieved": 4783,
      "Ġbatter": 4784,
      "ek": 4785,
      "phal": 4786,
      "Ġhypertension": 4787,
      "house": 4788,
      "\".": 4789,
      "SS": 4790,
      "Ġversus": 4791,
      "Ġvaccine": 4792,
      "%),": 4793,
      "Ġconnect": 4794,
      "ĠFurthermore": 4795,
      "Ġexec": 4796,
      "ĠÂ±": 4797,
      "Un": 4798,
      "umn": 4799,
      "They": 4800,
      "Ġremoved": 4801,
      "alpha": 4802,
      "Ġdidn": 4803,
      "Ġhuge": 4804,
      "Ġresource": 4805,
      "ĠTra": 4806,
      "Ġspl": 4807,
      "Ġsatis": 4808,
      "Ġchlor": 4809,
      "ĠProgram": 4810,
      "aped": 4811,
      "Ġstarting": 4812,
      "Ġdetails": 4813,
      "RO": 4814,
      "Ġinh": 4815,
      "rand": 4816,
      "Ar": 4817,
      "Ġclearly": 4818,
      "ĠJesus": 4819,
      "Ġworked": 4820,
      "Ġinjection": 4821,
      "Ġdivided": 4822,
      "CL": 4823,
      "ses": 4824,
      "esity": 4825,
      "Ġstrain": 4826,
      "Ġjournal": 4827,
      "exp": 4828,
      "Ġdelivery": 4829,
      "Ġappeared": 4830,
      "Ġmild": 4831,
      "ĠMedic": 4832,
      "cious": 4833,
      "Ġbackground": 4834,
      "Ġdrinking": 4835,
      "Ġnote": 4836,
      "Ġvalid": 4837,
      "ĠEnvironment": 4838,
      "Ġembry": 4839,
      "Ġfather": 4840,
      "Ġpharmac": 4841,
      "iotic": 4842,
      "Ġcities": 4843,
      "ellig": 4844,
      "Ġoutput": 4845,
      "hma": 4846,
      "ĠNO": 4847,
      "Ġrespiratory": 4848,
      "Ġphenomen": 4849,
      "trans": 4850,
      "vis": 4851,
      "Ġstable": 4852,
      "Ġinfants": 4853,
      "Ġalle": 4854,
      "agen": 4855,
      "Â°": 4856,
      "Ġsodium": 4857,
      "Ġapopt": 4858,
      "Ġcellular": 4859,
      "Ġexamine": 4860,
      "Ġmeasurement": 4861,
      "Ġeventually": 4862,
      "Ġheter": 4863,
      "Ġeggs": 4864,
      "Ġpi": 4865,
      "edia": 4866,
      "Ġhormone": 4867,
      "Ġarm": 4868,
      "ĠNow": 4869,
      "Ġaged": 4870,
      "mia": 4871,
      "Ġburn": 4872,
      "vered": 4873,
      "Ġprosp": 4874,
      "Ġglass": 4875,
      "ĠSeptember": 4876,
      "ero": 4877,
      "Ġwrote": 4878,
      "Ġdepending": 4879,
      "EL": 4880,
      "ara": 4881,
      "ĠPol": 4882,
      "Ġcommand": 4883,
      "Ġven": 4884,
      "Ġrequirements": 4885,
      "ĠPeople": 4886,
      "Ġsulf": 4887,
      "terior": 4888,
      "Ġelectrical": 4889,
      "CI": 4890,
      "ĠFeb": 4891,
      "Ġprimarily": 4892,
      "Ġreferred": 4893,
      "ev": 4894,
      "Ġemergency": 4895,
      "ĠOctober": 4896,
      "Ġhomes": 4897,
      "Ġforward": 4898,
      "ogl": 4899,
      "ĠAssociation": 4900,
      "pass": 4901,
      "Ġstages": 4902,
      "Ġtract": 4903,
      "Ġelectricity": 4904,
      "Ġplans": 4905,
      "nes": 4906,
      "Ġspring": 4907,
      "Ġmetabolism": 4908,
      "ken": 4909,
      "ortic": 4910,
      "Ġindustrial": 4911,
      "alle": 4912,
      "Ġlabel": 4913,
      "Ġcoord": 4914,
      "bur": 4915,
      "point": 4916,
      "oxy": 4917,
      "Ġforest": 4918,
      "ĠData": 4919,
      "ĠJapanese": 4920,
      "Ġchanging": 4921,
      "Ġtopic": 4922,
      "Ġemotional": 4923,
      "Ġserve": 4924,
      "Ġeffectively": 4925,
      "son": 4926,
      "iences": 4927,
      "works": 4928,
      "Ġsubstr": 4929,
      "Ġreceptors": 4930,
      "Ġinvolves": 4931,
      "nee": 4932,
      "Ġwatch": 4933,
      "Ġrapidly": 4934,
      "ingly": 4935,
      "Ġaffects": 4936,
      "Ġdelay": 4937,
      "Ġnumerous": 4938,
      "Ġexcellent": 4939,
      "Ġdecisions": 4940,
      "Ġadoles": 4941,
      "Ġ2016": 4942,
      "Ġgarden": 4943,
      "Ġrab": 4944,
      "Ġvariables": 4945,
      "Ġpercentage": 4946,
      "Com": 4947,
      "ĠCor": 4948,
      "Ġindepend": 4949,
      "Ġprefer": 4950,
      "ochond": 4951,
      "Ġod": 4952,
      "Ġspeech": 4953,
      "ĠInf": 4954,
      "ĠUnder": 4955,
      "ifying": 4956,
      "Ġpap": 4957,
      "inity": 4958,
      "ony": 4959,
      "MI": 4960,
      "NF": 4961,
      "Ġrepair": 4962,
      "Ġtransition": 4963,
      "Ġunderwent": 4964,
      "asp": 4965,
      "Ġthor": 4966,
      "elt": 4967,
      "ĠBlack": 4968,
      "www": 4969,
      "Ġchromos": 4970,
      "function": 4971,
      "Ġeasier": 4972,
      "All": 4973,
      "omatic": 4974,
      "Ġpromote": 4975,
      "mark": 4976,
      "Ġsed": 4977,
      "Ġpartners": 4978,
      "Ġbecoming": 4979,
      "Ġregulation": 4980,
      "Ġ2009": 4981,
      "ĠGovern": 4982,
      "ĠSch": 4983,
      "Ġdram": 4984,
      "organ": 4985,
      "Ġspinal": 4986,
      "Ġfraction": 4987,
      "Ġnothing": 4988,
      "Ġneuro": 4989,
      "Ġmuc": 4990,
      "Ġabsence": 4991,
      "hyth": 4992,
      "ĠGermany": 4993,
      "Ġhon": 4994,
      "Ġapply": 4995,
      "Ġbelief": 4996,
      "Ġdestro": 4997,
      "Ġcircum": 4998,
      "Ġwhom": 4999,
      "Ġgraph": 5000,
      "imer": 5001,
      "Ġdeaths": 5002,
      "ky": 5003,
      "Ġsess": 5004,
      "Ġnames": 5005,
      "amental": 5006,
      "Ġfamous": 5007,
      "Ġincome": 5008,
      "Ġmagnetic": 5009,
      "Ġaccurate": 5010,
      "Ġshowing": 5011,
      "Ġperhaps": 5012,
      "Ġsalt": 5013,
      "ĠProt": 5014,
      "ception": 5015,
      "Ġfatty": 5016,
      "Ġstyle": 5017,
      "ĠSpanish": 5018,
      "Ġstream": 5019,
      "ĠSer": 5020,
      "Ġstructural": 5021,
      "ham": 5022,
      "Ġinstruct": 5023,
      "Ġstrugg": 5024,
      "Ġsin": 5025,
      "Ġmostly": 5026,
      "Ġventricular": 5027,
      "ĠRoman": 5028,
      "ĠIII": 5029,
      "Ġprofession": 5030,
      "ĠWilli": 5031,
      "Ġanalyses": 5032,
      "rael": 5033,
      "Ġmission": 5034,
      "ĠmRNA": 5035,
      "Ġsufficient": 5036,
      "Ġactual": 5037,
      "Ġperiods": 5038,
      "ĠAng": 5039,
      "US": 5040,
      "Ġuns": 5041,
      "rotein": 5042,
      "lege": 5043,
      "asty": 5044,
      "Ġking": 5045,
      "ĠChristian": 5046,
      "Ġslightly": 5047,
      "Ġhappen": 5048,
      "Ġspirit": 5049,
      "After": 5050,
      "ias": 5051,
      "lin": 5052,
      "Ġdrop": 5053,
      "Ġgames": 5054,
      "Ġconnected": 5055,
      "Ġelder": 5056,
      "key": 5057,
      "ĠMedical": 5058,
      "lease": 5059,
      "Ġperipher": 5060,
      "Ġpick": 5061,
      "amics": 5062,
      "ructure": 5063,
      "ĠNovember": 5064,
      "Ġcardiovascular": 5065,
      "celer": 5066,
      "udd": 5067,
      "uracy": 5068,
      "Ġcovered": 5069,
      "Ġroutine": 5070,
      "oice": 5071,
      "rete": 5072,
      "orge": 5073,
      "ĠFood": 5074,
      "Ġarth": 5075,
      "Ġunderlying": 5076,
      "Ġchemicals": 5077,
      "Ġmales": 5078,
      "Ġtoxic": 5079,
      "Ġdoses": 5080,
      "Ġ2000": 5081,
      "Ġbelong": 5082,
      "Ġmicrob": 5083,
      "Ġefficacy": 5084,
      "ĠHouse": 5085,
      "Ġfacilit": 5086,
      "Ġcalculated": 5087,
      "ĠGroup": 5088,
      "Ġannual": 5089,
      "Ġunknown": 5090,
      "Ġclust": 5091,
      "Ġsuggesting": 5092,
      "col": 5093,
      "Ġdial": 5094,
      "ĠInternet": 5095,
      "ooth": 5096,
      "atform": 5097,
      "Ġscan": 5098,
      "Ġprogn": 5099,
      "Ġclasses": 5100,
      "Ġfigure": 5101,
      "Ġcounter": 5102,
      "Ġobtain": 5103,
      "CP": 5104,
      "imensional": 5105,
      "ĠRo": 5106,
      "39": 5107,
      "Ġcultures": 5108,
      "Ġheight": 5109,
      "lick": 5110,
      "chem": 5111,
      "Ġthromb": 5112,
      "ometry": 5113,
      "Ġdigest": 5114,
      "antic": 5115,
      "ondon": 5116,
      "Ġocean": 5117,
      "gypt": 5118,
      "Ġspecifically": 5119,
      "ĠPhys": 5120,
      "ruary": 5121,
      "arrow": 5122,
      "Ġster": 5123,
      "ca": 5124,
      "ella": 5125,
      "Ġworth": 5126,
      "Ġinstance": 5127,
      "Ġthin": 5128,
      "Ġexperts": 5129,
      "Ġoffice": 5130,
      "Ġencourag": 5131,
      "Ġcollege": 5132,
      "HD": 5133,
      "Ġdental": 5134,
      "Ġimplant": 5135,
      "Ġstrains": 5136,
      "According": 5137,
      "wo": 5138,
      "osystem": 5139,
      "Ġvar": 5140,
      "Ġhaz": 5141,
      "Ġfluores": 5142,
      "Ġhttp": 5143,
      "Ġdespite": 5144,
      "orial": 5145,
      "Ġadverse": 5146,
      "Ġremove": 5147,
      "Ġbottom": 5148,
      "Ġacet": 5149,
      "riculum": 5150,
      "Ġbuildings": 5151,
      "Ġfemales": 5152,
      "Ġinput": 5153,
      "Ġband": 5154,
      "ĠChurch": 5155,
      "Ġlinear": 5156,
      "Ġenhanced": 5157,
      "ocyte": 5158,
      "Ġpollution": 5159,
      "xy": 5160,
      "aign": 5161,
      "Ġguidelines": 5162,
      "Ġmathemat": 5163,
      "Ġpostoperative": 5164,
      "Ġprice": 5165,
      "adder": 5166,
      "Ġaccomp": 5167,
      "Ġoperations": 5168,
      "iful": 5169,
      "Our": 5170,
      "ded": 5171,
      "ford": 5172,
      "osite": 5173,
      "occ": 5174,
      "Ġpassed": 5175,
      "Ġinterpret": 5176,
      "Ġfing": 5177,
      "Many": 5178,
      "Ġgets": 5179,
      "Ġtrib": 5180,
      "Ġtypical": 5181,
      "Ġnotes": 5182,
      "Ġdangerous": 5183,
      "Ġarticles": 5184,
      "ĠUN": 5185,
      "Ġclosely": 5186,
      "IL": 5187,
      "Ġgenerated": 5188,
      "Ġconfidence": 5189,
      "ĠIts": 5190,
      "Ġsmoking": 5191,
      "Ġcitizens": 5192,
      "unct": 5193,
      "ĠGeneral": 5194,
      "Ġhour": 5195,
      "Ġpractical": 5196,
      "37": 5197,
      "Ġneck": 5198,
      "Ġpanc": 5199,
      "ogene": 5200,
      "Ġrecognized": 5201,
      "32": 5202,
      "ĠSal": 5203,
      "Ġacademic": 5204,
      "ĠMal": 5205,
      "Ġ2008": 5206,
      "ĠLaw": 5207,
      "Ġhousehold": 5208,
      "ĠBar": 5209,
      "ĠDevelopment": 5210,
      "Ġseed": 5211,
      "Ġsave": 5212,
      "ework": 5213,
      "Ġmalign": 5214,
      "Ġprotocol": 5215,
      "Ġdiscrim": 5216,
      "Ġhappens": 5217,
      "Ġaid": 5218,
      "rep": 5219,
      "ees": 5220,
      "Ġspot": 5221,
      "ĠUnion": 5222,
      "ori": 5223,
      "amma": 5224,
      "ĠRNA": 5225,
      "Ġinterview": 5226,
      "Ġantibodies": 5227,
      "Ġstore": 5228,
      "Ġround": 5229,
      "born": 5230,
      "ĠJust": 5231,
      "ĠSpec": 5232,
      "Ġfocused": 5233,
      "ĠOb": 5234,
      "ectomy": 5235,
      "ĠDec": 5236,
      "anol": 5237,
      "ishing": 5238,
      "65": 5239,
      "Ġreached": 5240,
      "Ġhimself": 5241,
      "ĠNet": 5242,
      "emy": 5243,
      "Ġrecip": 5244,
      "Here": 5245,
      "Ġoptim": 5246,
      "Ġawareness": 5247,
      "brid": 5248,
      "Although": 5249,
      "Ġoption": 5250,
      "Ġhydrogen": 5251,
      "Ġvariation": 5252,
      "izon": 5253,
      "Ġsquare": 5254,
      "iform": 5255,
      "Ġshall": 5256,
      "Ġsuccessfully": 5257,
      "Ġlargely": 5258,
      "Ġexpert": 5259,
      "Ġengineering": 5260,
      "uild": 5261,
      "ĠPD": 5262,
      "Ġleuk": 5263,
      "ione": 5264,
      "ĠEgypt": 5265,
      "Ġbrief": 5266,
      "Ġfine": 5267,
      "Ġgran": 5268,
      "AB": 5269,
      "ancing": 5270,
      "Ġsubsequent": 5271,
      "Ġvulner": 5272,
      "onia": 5273,
      "asc": 5274,
      "ĠPlan": 5275,
      "beta": 5276,
      "Ġconsequences": 5277,
      "etry": 5278,
      "ĠCoun": 5279,
      "Ġfrequent": 5280,
      "Ġdomain": 5281,
      "Ġadvantage": 5282,
      "Ġupd": 5283,
      "Ġmes": 5284,
      "Ġadequ": 5285,
      "ĠRel": 5286,
      "wards": 5287,
      "Ġconcepts": 5288,
      "Ġmetabolic": 5289,
      "Ġdrive": 5290,
      "Ġprofessor": 5291,
      "encies": 5292,
      "Ġmeat": 5293,
      "Ġboard": 5294,
      "ĠIsrael": 5295,
      "Ġconnection": 5296,
      "urt": 5297,
      "Ġaer": 5298,
      "Ġrain": 5299,
      "Ġwrong": 5300,
      "Con": 5301,
      "Ġcompare": 5302,
      "Ġmodified": 5303,
      "Ġmechanical": 5304,
      "Ġvegetables": 5305,
      "apes": 5306,
      "Ġmyocard": 5307,
      "Ġsupplement": 5308,
      "ĠHy": 5309,
      "Ġbow": 5310,
      "Why": 5311,
      "Ġstability": 5312,
      "Ġages": 5313,
      "ented": 5314,
      "ĠMoreover": 5315,
      "Ġelevated": 5316,
      "Ġmath": 5317,
      "ometric": 5318,
      "Ġfriend": 5319,
      "ĠCollege": 5320,
      "Ġwet": 5321,
      "Ġclick": 5322,
      "ptake": 5323,
      "Ġdetailed": 5324,
      "Ġisland": 5325,
      "ĠMich": 5326,
      "Ġ2017": 5327,
      "ĠSy": 5328,
      "weight": 5329,
      "Ġconservation": 5330,
      "ĠPhil": 5331,
      "Ġaccuracy": 5332,
      "Ġ2014": 5333,
      "ĠStudents": 5334,
      "place": 5335,
      "Ġinvolving": 5336,
      "Ġrepresents": 5337,
      "Ġnorthern": 5338,
      "oul": 5339,
      "ĠLondon": 5340,
      "ean": 5341,
      "irus": 5342,
      "Ġampl": 5343,
      "Ġantibody": 5344,
      "Ġadministered": 5345,
      "orith": 5346,
      "ympt": 5347,
      "Ġreceiving": 5348,
      "Ġdefinition": 5349,
      "Ġtransmission": 5350,
      "Ġgirls": 5351,
      "MA": 5352,
      "Ġselection": 5353,
      "Ġbehaviour": 5354,
      "alian": 5355,
      "standing": 5356,
      "ĠArt": 5357,
      "Ġstrongly": 5358,
      "ND": 5359,
      "faces": 5360,
      "\",": 5361,
      "ping": 5362,
      "Ġded": 5363,
      "Ġnine": 5364,
      "ventions": 5365,
      "Ġsupported": 5366,
      "ĠMuseum": 5367,
      "Ġflood": 5368,
      "pling": 5369,
      "Ġlandsc": 5370,
      "Ġdiscussion": 5371,
      "Ġdro": 5372,
      "Ġphilos": 5373,
      "Ġ31": 5374,
      "Ġwave": 5375,
      "Ġallowing": 5376,
      "Ġscen": 5377,
      "atural": 5378,
      "ĠWeb": 5379,
      "ira": 5380,
      "tenance": 5381,
      "Ġserved": 5382,
      "Ġfaster": 5383,
      "abetic": 5384,
      "ĠDise": 5385,
      "Ġrelation": 5386,
      "Ġsouthern": 5387,
      "Ġclos": 5388,
      "Ġobjective": 5389,
      "uz": 5390,
      "âĢĿ,": 5391,
      "Ġlipid": 5392,
      "pan": 5393,
      "Ġencourage": 5394,
      "Ġelderly": 5395,
      "Ġmedications": 5396,
      "Ġrepeated": 5397,
      "ux": 5398,
      "ĠNASA": 5399,
      "Ġmedication": 5400,
      "Ġbiom": 5401,
      "Ġorganizations": 5402,
      "oding": 5403,
      "Ġunivers": 5404,
      "Ġproperly": 5405,
      "Ġdependent": 5406,
      "PE": 5407,
      "Ġchurch": 5408,
      "Ġabuse": 5409,
      "Ġchildhood": 5410,
      "Sh": 5411,
      "Ġsperm": 5412,
      "ĠFrance": 5413,
      "teb": 5414,
      "Ġexplained": 5415,
      "Ġidentity": 5416,
      "Ps": 5417,
      "ificial": 5418,
      "Ġprinciples": 5419,
      "Ġvital": 5420,
      "Ġhear": 5421,
      "Ġmixed": 5422,
      "Ġseeds": 5423,
      "iary": 5424,
      "Ġrace": 5425,
      "Ġsignificance": 5426,
      "aint": 5427,
      "Ġpossess": 5428,
      "Ġasthma": 5429,
      "iotics": 5430,
      "Ġobservations": 5431,
      "Ġinflammatory": 5432,
      "ivated": 5433,
      "ĠHuman": 5434,
      "Ġhyd": 5435,
      "Ġmoved": 5436,
      "Ġtail": 5437,
      "Ġyellow": 5438,
      "ĠAddition": 5439,
      "Ġopin": 5440,
      "Ġmag": 5441,
      "ctive": 5442,
      "Ġoccas": 5443,
      "Ġresidents": 5444,
      "Ġwaters": 5445,
      "Ġperipheral": 5446,
      "Ġspent": 5447,
      "Ġconcerns": 5448,
      "Ġexactly": 5449,
      "nel": 5450,
      "Ġobvious": 5451,
      "Ġlesson": 5452,
      "opsy": 5453,
      "kele": 5454,
      "Ġconsult": 5455,
      "Ġdescribes": 5456,
      "Ġtasks": 5457,
      "Ġing": 5458,
      "section": 5459,
      "Ġdegrad": 5460,
      "Ġdischar": 5461,
      "Ġmanage": 5462,
      "44": 5463,
      "Ġsch": 5464,
      "lets": 5465,
      "iding": 5466,
      "Ġplatform": 5467,
      "right": 5468,
      "Ġlegis": 5469,
      "icular": 5470,
      "ĠPublic": 5471,
      "Ġregional": 5472,
      "Ġcrucial": 5473,
      "Ġdie": 5474,
      "ĠGreen": 5475,
      "Ġ75": 5476,
      "board": 5477,
      "Pl": 5478,
      "Ġyouth": 5479,
      "Ġappearance": 5480,
      "Ġforeign": 5481,
      "Ġsurrounding": 5482,
      "Ġlived": 5483,
      "Ġplays": 5484,
      "Ġign": 5485,
      "ĠLa": 5486,
      "ager": 5487,
      "Ġonset": 5488,
      "ĠJewish": 5489,
      "Ġsuitable": 5490,
      "Ġvariable": 5491,
      "Ab": 5492,
      "Ġmoderate": 5493,
      "Ġsuppl": 5494,
      "Ġfeeling": 5495,
      "Ġeconom": 5496,
      "Ġobesity": 5497,
      "Ġsituations": 5498,
      "thal": 5499,
      "ifest": 5500,
      "unk": 5501,
      "Ġraised": 5502,
      "neum": 5503,
      "ye": 5504,
      "Ġatmosphere": 5505,
      "apping": 5506,
      "Ġdistingu": 5507,
      "Ġcharge": 5508,
      "Ġvessels": 5509,
      "ĠOrgan": 5510,
      "orter": 5511,
      "Ġincl": 5512,
      "Ġ2007": 5513,
      "Ġmessage": 5514,
      "Ġgal": 5515,
      "stitution": 5516,
      "Ġdepends": 5517,
      "Ġ36": 5518,
      "Ġvalu": 5519,
      "Ġshared": 5520,
      "Ġdiscover": 5521,
      "Ġvolunte": 5522,
      "Ġready": 5523,
      "BC": 5524,
      "eties": 5525,
      "MR": 5526,
      "yt": 5527,
      "enth": 5528,
      "ĠAmong": 5529,
      "Ġcerv": 5530,
      "Ġoperating": 5531,
      "Ġpolym": 5532,
      "ortunately": 5533,
      "ags": 5534,
      "ĠOut": 5535,
      "ester": 5536,
      "However": 5537,
      "ĠMars": 5538,
      "Ġhelped": 5539,
      "Ġantigen": 5540,
      "Ġindicates": 5541,
      "ĠFebruary": 5542,
      "Ġdoub": 5543,
      "Ġju": 5544,
      "Ġvehicle": 5545,
      "Ġconv": 5546,
      "iber": 5547,
      "Ġintensity": 5548,
      "Ġpresentation": 5549,
      "Ġinvolvement": 5550,
      "Ġmix": 5551,
      "ĠFound": 5552,
      "ultaneous": 5553,
      "Ġcamer": 5554,
      "ĠOnce": 5555,
      "Ġgraft": 5556,
      "Ġapoptosis": 5557,
      "Ġwin": 5558,
      "ĠIsland": 5559,
      "Ġmovements": 5560,
      "icles": 5561,
      "Ġagreement": 5562,
      "31": 5563,
      "Ġtechnical": 5564,
      "Ġgrass": 5565,
      "Ġconcern": 5566,
      "but": 5567,
      "ĠDel": 5568,
      "Ġregression": 5569,
      "level": 5570,
      "ĠSocial": 5571,
      "ĠElect": 5572,
      "Ġbank": 5573,
      "ivalent": 5574,
      "Ġmanufacture": 5575,
      "Ġsand": 5576,
      "rix": 5577,
      "Ġhelping": 5578,
      "Ġfreedom": 5579,
      "PR": 5580,
      "Ġstom": 5581,
      "Ġsignals": 5582,
      "Ġabsorb": 5583,
      "Ġtun": 5584,
      "tee": 5585,
      "48": 5586,
      "orous": 5587,
      "Ġlaser": 5588,
      "Ġalgorith": 5589,
      "98": 5590,
      "Ġinvestigation": 5591,
      "idine": 5592,
      "Ġpeace": 5593,
      "Ġconsists": 5594,
      "Ġdecline": 5595,
      "Ġdepth": 5596,
      "Ġgrown": 5597,
      "Ġpossibility": 5598,
      "Ġremoval": 5599,
      "ĠPers": 5600,
      "ĠWork": 5601,
      "Ġidentification": 5602,
      "Ġiniti": 5603,
      "ĠOnly": 5604,
      "Ġcris": 5605,
      "aine": 5606,
      "Ġprem": 5607,
      "ounced": 5608,
      "ball": 5609,
      "ss": 5610,
      "inn": 5611,
      "astern": 5612,
      "Ġkill": 5613,
      "Ġendot": 5614,
      "ped": 5615,
      "olute": 5616,
      "aria": 5617,
      "Ġincreasingly": 5618,
      "Ġplease": 5619,
      "Se": 5620,
      "Most": 5621,
      "ĠIV": 5622,
      "Ġminimum": 5623,
      "Ġpolicies": 5624,
      "Ġnutrients": 5625,
      "oglob": 5626,
      "ĠPal": 5627,
      "Ġkn": 5628,
      "ĠStudy": 5629,
      "ĠTest": 5630,
      "Ġminim": 5631,
      "Ġexchange": 5632,
      "ĠFed": 5633,
      "Ġletter": 5634,
      "Ġcast": 5635,
      "Ġdra": 5636,
      "Ġproportion": 5637,
      "Ġbuy": 5638,
      "Ġbacterial": 5639,
      "dominal": 5640,
      "stead": 5641,
      "Ġcomprehensive": 5642,
      "Ġbud": 5643,
      "Ġtouch": 5644,
      "Ġpresident": 5645,
      "flow": 5646,
      "icks": 5647,
      "Ġlact": 5648,
      "Ġsubs": 5649,
      "Ġmitochond": 5650,
      "Ġanyone": 5651,
      "Ġinhibitor": 5652,
      "Ġsubstance": 5653,
      "za": 5654,
      "arp": 5655,
      "Ġcandid": 5656,
      "Ġonto": 5657,
      "Ġdisapp": 5658,
      "Ġparas": 5659,
      "ĠDon": 5660,
      "poses": 5661,
      "Ġrural": 5662,
      "gi": 5663,
      "ologically": 5664,
      "ĠMedicine": 5665,
      "ences": 5666,
      "ĠSte": 5667,
      "Ġadop": 5668,
      "Ġbaseline": 5669,
      "Ġpump": 5670,
      "immun": 5671,
      "ĠArch": 5672,
      "ods": 5673,
      "Ġgreatest": 5674,
      "Ġyounger": 5675,
      "Ġturned": 5676,
      "amily": 5677,
      "Ġstatement": 5678,
      "Ġimplications": 5679,
      "ears": 5680,
      "ĠCongress": 5681,
      "lam": 5682,
      "Ġstret": 5683,
      "Ġsustainable": 5684,
      "Ġvictim": 5685,
      "Ġul": 5686,
      "Ġglut": 5687,
      "Ġquantitative": 5688,
      "ĠChe": 5689,
      "ocr": 5690,
      "Ġreality": 5691,
      "Ġinhibited": 5692,
      "isher": 5693,
      "ĠAir": 5694,
      "ĠMary": 5695,
      "Ġacceler": 5696,
      "ĠJournal": 5697,
      "Ġsuscept": 5698,
      "Ġfarmers": 5699,
      "Ġrelax": 5700,
      "Ġdiscovery": 5701,
      "Ġcompound": 5702,
      "Ġcerebral": 5703,
      "ĠPost": 5704,
      "Ġcataly": 5705,
      "Ġideal": 5706,
      "Ġmeeting": 5707,
      "Ġuptake": 5708,
      "Ġmedian": 5709,
      "rav": 5710,
      "def": 5711,
      "ĠSpace": 5712,
      "Ġ48": 5713,
      "Ġemail": 5714,
      "Ġpip": 5715,
      "lar": 5716,
      "Ġvot": 5717,
      "Ġcampaign": 5718,
      "Ġpil": 5719,
      "Ġremaining": 5720,
      "Ġpersons": 5721,
      "Ġimpacts": 5722,
      "Ġintellig": 5723,
      "Ġfailed": 5724,
      "Ġterrit": 5725,
      "with": 5726,
      "Ġcav": 5727,
      "Ġlens": 5728,
      "Ġmutations": 5729,
      "MD": 5730,
      "Ġextended": 5731,
      "Ġcomfort": 5732,
      "That": 5733,
      "ION": 5734,
      "Re": 5735,
      "Ġfoss": 5736,
      "ocation": 5737,
      "Ġ32": 5738,
      "Ġkilled": 5739,
      "ĠThree": 5740,
      "Ġischem": 5741,
      "Ġ195": 5742,
      "Ġchromat": 5743,
      "Ġconclusion": 5744,
      "Ġelectronic": 5745,
      "ĠDist": 5746,
      "rating": 5747,
      "Ġkil": 5748,
      "Ġurine": 5749,
      "Ġperman": 5750,
      "Ġjour": 5751,
      "Ġprotected": 5752,
      "Ġpossibly": 5753,
      "gans": 5754,
      "Ġinterested": 5755,
      "Ġcontained": 5756,
      "ĠMat": 5757,
      "ĠHel": 5758,
      "Ġchest": 5759,
      "Ġnervous": 5760,
      "irty": 5761,
      "IP": 5762,
      "empor": 5763,
      "oked": 5764,
      "Ġbio": 5765,
      "ĠFe": 5766,
      "Ġlooks": 5767,
      "Ġinstitutions": 5768,
      "Ġdiversity": 5769,
      "EC": 5770,
      "Ġinterval": 5771,
      "Ġcontinues": 5772,
      "idge": 5773,
      "ĠDi": 5774,
      "Ġflowers": 5775,
      "Ġharvest": 5776,
      "Ġdestroy": 5777,
      "ogle": 5778,
      "Ġcreation": 5779,
      "+)": 5780,
      "Ġanalog": 5781,
      "Ġdent": 5782,
      "ĠLet": 5783,
      "Ġpieces": 5784,
      "Ġsav": 5785,
      "Ġfundamental": 5786,
      "down": 5787,
      "ĠDem": 5788,
      "ample": 5789,
      "ensus": 5790,
      "rows": 5791,
      "Ġinstall": 5792,
      "RA": 5793,
      "Ġperspective": 5794,
      "ĠCour": 5795,
      "ĠAsia": 5796,
      "Ġmaintenance": 5797,
      "Ġexplan": 5798,
      "Ġclinic": 5799,
      "Ġseverity": 5800,
      "Ġlinks": 5801,
      "yg": 5802,
      "Ġsounds": 5803,
      "stood": 5804,
      "ĠDirect": 5805,
      "Ġviolence": 5806,
      "ĠGreek": 5807,
      "Ġbegins": 5808,
      "Ġdiameter": 5809,
      "pre": 5810,
      "acet": 5811,
      "Ġexplains": 5812,
      "Ġdeliver": 5813,
      "cycl": 5814,
      "ĠBas": 5815,
      "opathy": 5816,
      "Ġimproving": 5817,
      "New": 5818,
      "ilation": 5819,
      "Ġabund": 5820,
      "Ġgall": 5821,
      "ĠMet": 5822,
      "Ġcoh": 5823,
      "Ġreviewed": 5824,
      "Ġdatabase": 5825,
      "Ġrevers": 5826,
      "Ġamb": 5827,
      "ĠMexico": 5828,
      "stream": 5829,
      "Ġglob": 5830,
      "Ġvisible": 5831,
      "riers": 5832,
      "ĠRepublic": 5833,
      "Ġhelpful": 5834,
      "Ġfertil": 5835,
      "Ġtrauma": 5836,
      "From": 5837,
      "NS": 5838,
      "Ġrough": 5839,
      "Ġstraight": 5840,
      "ache": 5841,
      "akers": 5842,
      "Ġ65": 5843,
      "Ġbright": 5844,
      "Ġfal": 5845,
      "ĠMount": 5846,
      "Ġhop": 5847,
      "ĠWhy": 5848,
      "Ġkinds": 5849,
      "acific": 5850,
      "Ġcareer": 5851,
      "Ġsnow": 5852,
      "Ġhabitat": 5853,
      "Ġcorresponding": 5854,
      "Ġvaluable": 5855,
      "abric": 5856,
      "Ġhealthcare": 5857,
      "+/-": 5858,
      "Ġsen": 5859,
      "eles": 5860,
      "Ġperce": 5861,
      "Ġlik": 5862,
      "ĠSun": 5863,
      "Ġconj": 5864,
      "Ġcapable": 5865,
      "Ġdeficiency": 5866,
      "TS": 5867,
      "sm": 5868,
      "acters": 5869,
      "Ġresolution": 5870,
      "Ġtips": 5871,
      "Ġdietary": 5872,
      "ĠProfess": 5873,
      "Ġprogression": 5874,
      "Ġanterior": 5875,
      "Ġecosystem": 5876,
      "uous": 5877,
      "ĠNa": 5878,
      "chers": 5879,
      "Ġpregnant": 5880,
      "rus": 5881,
      "ato": 5882,
      "Ġsurve": 5883,
      "Ġintroduction": 5884,
      "ĠRem": 5885,
      "Ġnarrow": 5886,
      "Ġkept": 5887,
      "Ġtruth": 5888,
      "aired": 5889,
      "Ġrenew": 5890,
      "Ġtwice": 5891,
      "Ġsmooth": 5892,
      "Ġthyroid": 5893,
      "Ġlatter": 5894,
      "IR": 5895,
      "Ġportion": 5896,
      "PL": 5897,
      "Ġflat": 5898,
      "Ġtopics": 5899,
      "Ġcord": 5900,
      "ĠAv": 5901,
      "illary": 5902,
      "ĠTr": 5903,
      "ander": 5904,
      "ĠJames": 5905,
      "Ġroots": 5906,
      "Ġparalle": 5907,
      "ĠCouncil": 5908,
      "Ġclim": 5909,
      "Ġdiverse": 5910,
      "Ġcurriculum": 5911,
      "vert": 5912,
      "iration": 5913,
      "ĠCancer": 5914,
      "Now": 5915,
      "Us": 5916,
      "Ġ#": 5917,
      "Ġimpair": 5918,
      "Ġwanted": 5919,
      "Ġmarine": 5920,
      "Ġbones": 5921,
      "vision": 5922,
      "ĠArab": 5923,
      "Ġwalking": 5924,
      "Effect": 5925,
      "Â·": 5926,
      "Ġstorm": 5927,
      "Ġstars": 5928,
      "Ġfamiliar": 5929,
      "road": 5930,
      "Ġprecise": 5931,
      "Ġunf": 5932,
      "Ġoffered": 5933,
      "Ġpolymer": 5934,
      "Ġcredit": 5935,
      "cast": 5936,
      "arbon": 5937,
      "rocy": 5938,
      "Ġtour": 5939,
      "ophil": 5940,
      "Ġbird": 5941,
      "Ġunus": 5942,
      "67": 5943,
      "Ġdisturb": 5944,
      "Ġneurolog": 5945,
      "Ġstomach": 5946,
      "ription": 5947,
      "Ġeffectiveness": 5948,
      "Ġletters": 5949,
      "Ġconflict": 5950,
      "Ġsuffering": 5951,
      "Sp": 5952,
      "patic": 5953,
      "teen": 5954,
      "ĠFour": 5955,
      "ĠExper": 5956,
      "Ġmarkers": 5957,
      "Ġaimed": 5958,
      "Ġsurpris": 5959,
      "ĠControl": 5960,
      "Ġorient": 5961,
      "Ġrecognition": 5962,
      "Ġmoist": 5963,
      "aper": 5964,
      "Ġrh": 5965,
      "Ġshift": 5966,
      "Ġagent": 5967,
      "Ġpurposes": 5968,
      "Ġconcluded": 5969,
      "Ġproliferation": 5970,
      "vas": 5971,
      "Ġvel": 5972,
      "ĠTex": 5973,
      "Ġcoal": 5974,
      "Ġarterial": 5975,
      "thle": 5976,
      "Ġplus": 5977,
      "Ġchemotherapy": 5978,
      "Ġpy": 5979,
      "ĠBel": 5980,
      "Ġerror": 5981,
      "ĠDavid": 5982,
      "Ġbattle": 5983,
      "ĠPort": 5984,
      "Ġenzymes": 5985,
      "dent": 5986,
      "Ġnormally": 5987,
      "Ġagricultural": 5988,
      "DNA": 5989,
      "ago": 5990,
      "Ġpathways": 5991,
      "Ġpool": 5992,
      "ĠKore": 5993,
      "Ġexistence": 5994,
      "'ll": 5995,
      "Ġkinase": 5996,
      "Ġpark": 5997,
      "Ġattacks": 5998,
      "ontaneous": 5999,
      "ĠSu": 6000,
      "ĠWilliam": 6001,
      "Ġrestrict": 6002,
      "Ġradical": 6003,
      "Ġpure": 6004,
      "Ġhit": 6005,
      "ĠProject": 6006,
      "ĠPen": 6007,
      "ĠAtl": 6008,
      "west": 6009,
      "idents": 6010,
      "Ġlanguages": 6011,
      "Ġessay": 6012,
      "Ġbehaviors": 6013,
      "Ġcenturies": 6014,
      "ĠAcad": 6015,
      "Ġtaught": 6016,
      "Ġframework": 6017,
      "Ġmist": 6018,
      "rous": 6019,
      "Ġsimpl": 6020,
      "Ġfollows": 6021,
      "rons": 6022,
      "Des": 6023,
      "iant": 6024,
      "Ġ37": 6025,
      "obic": 6026,
      "iling": 6027,
      "Ġaren": 6028,
      "Ġmanifest": 6029,
      "Ġfeeding": 6030,
      "ĠGeorge": 6031,
      "Americ": 6032,
      "rors": 6033,
      "Ġfif": 6034,
      "Ġmode": 6035,
      "iverse": 6036,
      "Ġmicrog": 6037,
      "rie": 6038,
      "Ġchick": 6039,
      "pping": 6040,
      "DS": 6041,
      "Ġforced": 6042,
      "mediated": 6043,
      "dden": 6044,
      "Ġnotice": 6045,
      "04": 6046,
      "apse": 6047,
      "vironments": 6048,
      "ĠClass": 6049,
      "BP": 6050,
      "EP": 6051,
      "tra": 6052,
      "Ġsort": 6053,
      "Ġbeneficial": 6054,
      "85": 6055,
      "press": 6056,
      "Ġdecided": 6057,
      "Ġfer": 6058,
      "ĠBay": 6059,
      "gent": 6060,
      "Ġcert": 6061,
      "Ġleaf": 6062,
      "ĠFlor": 6063,
      "Ġcrim": 6064,
      "Ġcats": 6065,
      "Ġassemb": 6066,
      "Ġurinary": 6067,
      "Ġknee": 6068,
      "Ġindicating": 6069,
      "Ġcharacteristic": 6070,
      "Ġepis": 6071,
      "ohyd": 6072,
      "well": 6073,
      "ĠFore": 6074,
      "Ġsets": 6075,
      "Ġtrust": 6076,
      "Ġastron": 6077,
      "ĠSecond": 6078,
      "pen": 6079,
      "Ġpages": 6080,
      "ĠService": 6081,
      "verty": 6082,
      "Ġreson": 6083,
      "Ġsuperior": 6084,
      "aur": 6085,
      "Ġheard": 6086,
      "Ġmeant": 6087,
      "Ġworldwide": 6088,
      "ifferent": 6089,
      "Ġgenerate": 6090,
      "RP": 6091,
      "last": 6092,
      "Ġstation": 6093,
      "Ġprolong": 6094,
      "Ġmaster": 6095,
      "Ġangi": 6096,
      "iol": 6097,
      "ishes": 6098,
      "Ġpoverty": 6099,
      "Ġfewer": 6100,
      "dimensional": 6101,
      "Ġrecur": 6102,
      "Ġcharacters": 6103,
      "Ġgrant": 6104,
      "Ġestimate": 6105,
      "Ġsong": 6106,
      "Ġintended": 6107,
      "Ġdecade": 6108,
      "Ġmethyl": 6109,
      "Ġowners": 6110,
      "Ġfruits": 6111,
      "mat": 6112,
      "Ġblog": 6113,
      "Ġsimultaneous": 6114,
      "Ġemployed": 6115,
      "Ġnaturally": 6116,
      "Ġmorning": 6117,
      "Ġcrops": 6118,
      "do": 6119,
      "Ġpref": 6120,
      "Int": 6121,
      "onin": 6122,
      "Ġdysfunction": 6123,
      "Ġcart": 6124,
      "Ġrub": 6125,
      "Ġproducing": 6126,
      "Ġmulti": 6127,
      "orrh": 6128,
      "osen": 6129,
      "Ġsudden": 6130,
      "Ġspectrum": 6131,
      "Ġspat": 6132,
      "isp": 6133,
      "Ġlic": 6134,
      "ĠOff": 6135,
      "Ġwalls": 6136,
      "Ġinstrument": 6137,
      "ĠMark": 6138,
      "Ġplaying": 6139,
      "asure": 6140,
      "Ġvast": 6141,
      "Stud": 6142,
      "Ġhypothesis": 6143,
      "itz": 6144,
      "ifications": 6145,
      "Ġnetworks": 6146,
      "Ġmyocardial": 6147,
      "Ġdust": 6148,
      "Ġship": 6149,
      "ĠCentral": 6150,
      "rastructure": 6151,
      "Ġglyc": 6152,
      "Ġpreparation": 6153,
      "atus": 6154,
      "Ġalb": 6155,
      "Ġbeautiful": 6156,
      "aker": 6157,
      "icide": 6158,
      "Ġvag": 6159,
      "Ġintermedi": 6160,
      "ossible": 6161,
      "ipped": 6162,
      "Ġdoctors": 6163,
      "Ġjobs": 6164,
      "Ġlatest": 6165,
      "ĠPress": 6166,
      "BS": 6167,
      "Ġdri": 6168,
      "mentation": 6169,
      "ĠLatin": 6170,
      "'ve": 6171,
      "Ġbron": 6172,
      "Ġrul": 6173,
      "Ġspend": 6174,
      "Ġfinally": 6175,
      "HA": 6176,
      "More": 6177,
      "ĠPC": 6178,
      "zing": 6179,
      "Ġsystemic": 6180,
      "ĠResults": 6181,
      "ctic": 6182,
      "Ġotherwise": 6183,
      "Ġpredicted": 6184,
      "Ġderiv": 6185,
      "cribed": 6186,
      "Ġdoll": 6187,
      "Ġnav": 6188,
      "Ġreliable": 6189,
      "ĠStand": 6190,
      "Ġmixt": 6191,
      "78": 6192,
      "Ġroll": 6193,
      "Ġdriving": 6194,
      "Ġlateral": 6195,
      "Ġrect": 6196,
      "amil": 6197,
      "Ġrecycl": 6198,
      "Ġadvance": 6199,
      "Ġbrown": 6200,
      "Ġdrain": 6201,
      "ĠWomen": 6202,
      "Ġhundreds": 6203,
      "Ġwest": 6204,
      "Ġlessons": 6205,
      "field": 6206,
      "wood": 6207,
      "Ġinhibitors": 6208,
      "iatric": 6209,
      "Ġprofessionals": 6210,
      "Ġpup": 6211,
      "ulating": 6212,
      "Ġcompris": 6213,
      "Ġfiber": 6214,
      "02": 6215,
      "odyn": 6216,
      "iac": 6217,
      "Ġantioxid": 6218,
      "Ġsequences": 6219,
      "Ġthoughts": 6220,
      "Ġesc": 6221,
      "Ġreturned": 6222,
      "ĠTexas": 6223,
      "Ġadding": 6224,
      "ĠTur": 6225,
      "igure": 6226,
      "wing": 6227,
      "Ġsections": 6228,
      "state": 6229,
      "ĠRad": 6230,
      "Ġoverl": 6231,
      "Ġ500": 6232,
      "42": 6233,
      "Ġtro": 6234,
      "Ġtrou": 6235,
      "alt": 6236,
      "Ġinner": 6237,
      "ican": 6238,
      "Ġrein": 6239,
      "Ġnitrogen": 6240,
      "Ġprofile": 6241,
      "ĠWhite": 6242,
      "Ġmutation": 6243,
      "Ġsatell": 6244,
      "Ġwestern": 6245,
      "oo": 6246,
      "Ġcontamin": 6247,
      "Ġseek": 6248,
      "aughter": 6249,
      "Ġofficial": 6250,
      "Ġreb": 6251,
      "Ġcourt": 6252,
      "Ġdepos": 6253,
      "isk": 6254,
      "chang": 6255,
      "effect": 6256,
      "Ġwid": 6257,
      "ĠToday": 6258,
      "aining": 6259,
      "Ġparty": 6260,
      "Ind": 6261,
      "cule": 6262,
      "iral": 6263,
      "ĠEnergy": 6264,
      "ĠLife": 6265,
      "Ġstone": 6266,
      "ĠUp": 6267,
      "Ġpartial": 6268,
      "atur": 6269,
      "ĠEvery": 6270,
      "Ġring": 6271,
      "Ġabsolute": 6272,
      "arter": 6273,
      "Ġfix": 6274,
      "Ġgel": 6275,
      "Ġplayed": 6276,
      "which": 6277,
      "Ġfetal": 6278,
      "Ġenvironments": 6279,
      "Ġretros": 6280,
      "Ġproduces": 6281,
      "yright": 6282,
      "De": 6283,
      "rasound": 6284,
      "Ġmentioned": 6285,
      "Ġthr": 6286,
      "ĠMiss": 6287,
      "Ġimmediate": 6288,
      "Ġroles": 6289,
      "Ġcolleag": 6290,
      "Ġslowly": 6291,
      "Ġunderstood": 6292,
      "Ġpredom": 6293,
      "Pre": 6294,
      "Ġfixed": 6295,
      "Ġorgans": 6296,
      "ĠMS": 6297,
      "acing": 6298,
      "Ġcolors": 6299,
      "Ġethn": 6300,
      "ugh": 6301,
      "ynt": 6302,
      "Ġtransf": 6303,
      "Ġkeeping": 6304,
      "Ġfacts": 6305,
      "Ġrefers": 6306,
      "Ġcancers": 6307,
      "Ġpsychological": 6308,
      "Ġdynamic": 6309,
      "Rec": 6310,
      "ĠBet": 6311,
      "Ġclosed": 6312,
      "Ġformal": 6313,
      "Ġlifest": 6314,
      "Ġwaves": 6315,
      "Ġprogressive": 6316,
      "Ġgreatly": 6317,
      "being": 6318,
      "Ġ...": 6319,
      "acts": 6320,
      "Ġgrand": 6321,
      "ait": 6322,
      "oric": 6323,
      "Ġlov": 6324,
      "Ġfort": 6325,
      "64": 6326,
      "taining": 6327,
      "Ġphotos": 6328,
      "Ġnucleus": 6329,
      "ĠCare": 6330,
      "activity": 6331,
      "what": 6332,
      "Ġgest": 6333,
      "Ġsaying": 6334,
      "Ġmanaged": 6335,
      "Ġlooked": 6336,
      "Ġcra": 6337,
      "Ġbill": 6338,
      "Ġcontroll": 6339,
      "Ġkm": 6340,
      "ĠÃ": 6341,
      "Ġinstruction": 6342,
      "Ġfacilities": 6343,
      "itals": 6344,
      "mod": 6345,
      "ĠMass": 6346,
      "Ġworse": 6347,
      "ĠInformation": 6348,
      "Ġflav": 6349,
      "ĠPacific": 6350,
      "Ġstatistically": 6351,
      "orad": 6352,
      "eal": 6353,
      "Ġstored": 6354,
      "Ġlayers": 6355,
      "Ġgastric": 6356,
      "Ġsecretion": 6357,
      "Ġfaith": 6358,
      "500": 6359,
      "ema": 6360,
      "ometimes": 6361,
      "Ġpron": 6362,
      "Ġvas": 6363,
      "Ġinterventions": 6364,
      "During": 6365,
      "Ġmeasuring": 6366,
      "iagn": 6367,
      "No": 6368,
      "Ġlose": 6369,
      "Ġmobile": 6370,
      "Ġwealth": 6371,
      "RS": 6372,
      "Ġmer": 6373,
      "ĠSuch": 6374,
      "Ġadvice": 6375,
      "ĠAp": 6376,
      "Ġvoice": 6377,
      "mas": 6378,
      "Ġfever": 6379,
      "Ġsignaling": 6380,
      "Ġ1990": 6381,
      "Ġwel": 6382,
      "Ġeast": 6383,
      "ifies": 6384,
      "ogenous": 6385,
      "razil": 6386,
      "Ġsector": 6387,
      "ada": 6388,
      "itage": 6389,
      "luding": 6390,
      "ibilities": 6391,
      "Ġsubstances": 6392,
      "Ġwonder": 6393,
      "Ġsurfaces": 6394,
      "athy": 6395,
      "ĠRev": 6396,
      "Ġpneum": 6397,
      "Ġmassive": 6398,
      "ĠTechnology": 6399,
      "CM": 6400,
      "ĠLearning": 6401,
      "Do": 6402,
      "Ġmur": 6403,
      "Ġpediatric": 6404,
      "ĠMart": 6405,
      "Ġmelan": 6406,
      "88": 6407,
      "Ġrecognize": 6408,
      "Ġsend": 6409,
      "Ġstudying": 6410,
      "asia": 6411,
      "Ġingred": 6412,
      "Ġorganisms": 6413,
      "Ġpaint": 6414,
      "Ġcervical": 6415,
      "Ġemphas": 6416,
      "Ġpit": 6417,
      "Ġfold": 6418,
      "Ġanest": 6419,
      "ĠHen": 6420,
      "duction": 6421,
      "Ġsmart": 6422,
      "ĠDisease": 6423,
      "aled": 6424,
      "ĠAL": 6425,
      "umes": 6426,
      "Ġ300": 6427,
      "Ġcouple": 6428,
      "ĠPaul": 6429,
      "Ġaqu": 6430,
      "ĠBi": 6431,
      "Ġexpans": 6432,
      "Ġspecimens": 6433,
      "97": 6434,
      "CH": 6435,
      "Ġtheore": 6436,
      "otal": 6437,
      "ario": 6438,
      "aret": 6439,
      "Ġdomestic": 6440,
      "itudes": 6441,
      "Ġtrain": 6442,
      "Ġ2006": 6443,
      "Ġlimits": 6444,
      "Ġimplementation": 6445,
      "gu": 6446,
      "Ġoccurring": 6447,
      "Ġdirector": 6448,
      "ridge": 6449,
      "Ġregularly": 6450,
      "ĠVirgin": 6451,
      "Ġequivalent": 6452,
      "Ġfloor": 6453,
      "Ġedge": 6454,
      "Ġoptimal": 6455,
      "ĠGovernment": 6456,
      "ffee": 6457,
      "Ġfabric": 6458,
      "pled": 6459,
      "rian": 6460,
      "Ġdescription": 6461,
      "Ġtiny": 6462,
      "iced": 6463,
      "Ġbrother": 6464,
      "cest": 6465,
      "umber": 6466,
      "everal": 6467,
      "Ġleader": 6468,
      "Ġreligion": 6469,
      "ĠSee": 6470,
      "Cont": 6471,
      "mented": 6472,
      "Ġ33": 6473,
      "Ġfeelings": 6474,
      "ĠBr": 6475,
      "ropical": 6476,
      "ĠQue": 6477,
      "Ġexhibited": 6478,
      "En": 6479,
      "Ġanat": 6480,
      "ĠBritain": 6481,
      "Ġabnormalities": 6482,
      "Te": 6483,
      "ails": 6484,
      "Ġmaintained": 6485,
      "erative": 6486,
      "ucle": 6487,
      "NO": 6488,
      "inking": 6489,
      "Ġathle": 6490,
      "Ġmand": 6491,
      "ocyt": 6492,
      "ĠCivil": 6493,
      "break": 6494,
      "Ġdifferentiation": 6495,
      "Ġinduction": 6496,
      "96": 6497,
      "Ġpolar": 6498,
      "ĠDef": 6499,
      "range": 6500,
      "Ġunlike": 6501,
      "Ġartificial": 6502,
      "Ġadequate": 6503,
      "57": 6504,
      "reshold": 6505,
      "hor": 6506,
      "Ġmineral": 6507,
      "lements": 6508,
      "ptic": 6509,
      "Ġphone": 6510,
      "ML": 6511,
      "rey": 6512,
      "olve": 6513,
      "ĠMac": 6514,
      "ĠEnd": 6515,
      "Ġdiffer": 6516,
      "upt": 6517,
      "ĠMult": 6518,
      "Ġneon": 6519,
      "Gen": 6520,
      "ĠHospital": 6521,
      "Ġabdominal": 6522,
      "Ġcomputers": 6523,
      "Ġzone": 6524,
      "Ġharmful": 6525,
      "osqu": 6526,
      "Ġabsorption": 6527,
      "Ġbreathing": 6528,
      "zen": 6529,
      "Ġfiles": 6530,
      "Ġtargets": 6531,
      "Ġtoxicity": 6532,
      "ĠDespite": 6533,
      "Ġwarming": 6534,
      "ĠPT": 6535,
      "ĠLord": 6536,
      "Ġmigration": 6537,
      "Ġbiopsy": 6538,
      "band": 6539,
      "Ġalk": 6540,
      "Ġinfect": 6541,
      "Ġphysiological": 6542,
      "Ġviral": 6543,
      "ĠMake": 6544,
      "Ġkg": 6545,
      "Ġcyst": 6546,
      "Ġobservation": 6547,
      "ING": 6548,
      "asal": 6549,
      "Ġnm": 6550,
      "Ġsupports": 6551,
      "Ġangle": 6552,
      "hips": 6553,
      "à¤": 6554,
      "Ġmuseum": 6555,
      "Ġana": 6556,
      "ĠIS": 6557,
      "Ġ34": 6558,
      "Ġtube": 6559,
      "Ġcrisis": 6560,
      "Ġtet": 6561,
      "ĠDisc": 6562,
      "Ġraise": 6563,
      "ĠStudies": 6564,
      "cents": 6565,
      "ĠMD": 6566,
      "Ġcourses": 6567,
      "Ġestimates": 6568,
      "Ġpictures": 6569,
      "ĠFlorida": 6570,
      "reed": 6571,
      "Ġlibrary": 6572,
      "Ġrecommendations": 6573,
      "lers": 6574,
      "ĠTreatment": 6575,
      "inson": 6576,
      "Ġprostate": 6577,
      "Ġhosp": 6578,
      "berg": 6579,
      "ĠVol": 6580,
      "heimer": 6581,
      "Ġwire": 6582,
      "ergic": 6583,
      "Ġformat": 6584,
      "ĠSea": 6585,
      "Ġinsects": 6586,
      "name": 6587,
      "Ġmoon": 6588,
      "Ġ38": 6589,
      "Ġexpensive": 6590,
      "Ġfelt": 6591,
      "tage": 6592,
      "Ġgap": 6593,
      "Ġwildlife": 6594,
      "Ġcortex": 6595,
      "Ġreplacement": 6596,
      "Ġsick": 6597,
      "ĠLou": 6598,
      "HS": 6599,
      "RT": 6600,
      "athe": 6601,
      "Ġprepare": 6602,
      "Ġaffecting": 6603,
      "Ġbleeding": 6604,
      "03": 6605,
      "Ġconscious": 6606,
      "Ġaccom": 6607,
      "Ġremote": 6608,
      "Ġsports": 6609,
      "Ġhybrid": 6610,
      "Ġphysician": 6611,
      "ĠIr": 6612,
      "osal": 6613,
      "Ġleaving": 6614,
      "Ġspontaneous": 6615,
      "Ġdiabetic": 6616,
      "Ġveloc": 6617,
      "66": 6618,
      "oyal": 6619,
      "Ġinfluenced": 6620,
      "anguage": 6621,
      "Ġresponsibility": 6622,
      "Ġpel": 6623,
      "anth": 6624,
      "Ġdin": 6625,
      "renal": 6626,
      "Ġpurs": 6627,
      "Ġparallel": 6628,
      "Ġvect": 6629,
      "Ġviews": 6630,
      "Ġgastro": 6631,
      "Ġech": 6632,
      "Ġviruses": 6633,
      "Ġshock": 6634,
      "Ġschem": 6635,
      "ĠCommission": 6636,
      "ĠFinally": 6637,
      "Ġgerm": 6638,
      "utive": 6639,
      "Ġure": 6640,
      "Ġmillions": 6641,
      "Ġinfant": 6642,
      "Ġhealing": 6643,
      "ĠRober": 6644,
      "Ġlocations": 6645,
      "mal": 6646,
      "ĠGoogle": 6647,
      "Dr": 6648,
      "Ġaccompan": 6649,
      "DP": 6650,
      "Ġsmoke": 6651,
      "Ġsettle": 6652,
      "ĠNews": 6653,
      "Ġfluor": 6654,
      "icit": 6655,
      "Ġprox": 6656,
      "Ġopening": 6657,
      "ĠSen": 6658,
      "Ġpotent": 6659,
      "Ac": 6660,
      "Ġdil": 6661,
      "Ġgovernments": 6662,
      "Ġoxide": 6663,
      "ĠMiddle": 6664,
      "Ġcup": 6665,
      "Ġben": 6666,
      "icon": 6667,
      "Ġgrav": 6668,
      "Ġsuffer": 6669,
      "Ġrandomized": 6670,
      "Ġsubstrate": 6671,
      "Ġaccompl": 6672,
      "idal": 6673,
      "Ġshel": 6674,
      "Ġ2005": 6675,
      "AA": 6676,
      "ĠBudd": 6677,
      "ĠHol": 6678,
      "Ġsettings": 6679,
      "Ġquestionna": 6680,
      "Ġphenomenon": 6681,
      "iled": 6682,
      "usal": 6683,
      "Ġclassified": 6684,
      "ota": 6685,
      "igenous": 6686,
      "onomic": 6687,
      "Ġwound": 6688,
      "Ġkit": 6689,
      "Ġtranscription": 6690,
      "Ġvehicles": 6691,
      "55": 6692,
      "ĠRich": 6693,
      "Ġauto": 6694,
      "Ġinternet": 6695,
      "ĠFoundation": 6696,
      "Ġsides": 6697,
      "ĠNor": 6698,
      "Ġmatrix": 6699,
      "position": 6700,
      "Ġfeedback": 6701,
      "een": 6702,
      "rem": 6703,
      "elled": 6704,
      "Ġflight": 6705,
      "venous": 6706,
      "PT": 6707,
      "ĠBrazil": 6708,
      "Ġmyel": 6709,
      "Ġwear": 6710,
      "ĠLabor": 6711,
      "Ġreduces": 6712,
      "ĠSupp": 6713,
      "Ġconcerned": 6714,
      "LE": 6715,
      "Ġgar": 6716,
      "ĠCS": 6717,
      "Ġhappened": 6718,
      "Ġremark": 6719,
      "ĠColumb": 6720,
      "Ġunusual": 6721,
      "Ġfirm": 6722,
      "ĠFollow": 6723,
      "ĠLake": 6724,
      "ĠMean": 6725,
      "seud": 6726,
      "ĠEnvironmental": 6727,
      "ĠMem": 6728,
      "Ġcolumn": 6729,
      "Ġdefine": 6730,
      "Ġapart": 6731,
      "oscopic": 6732,
      "Ġcoc": 6733,
      "ania": 6734,
      "ĠWild": 6735,
      "Ġproved": 6736,
      "ĠConf": 6737,
      "Ġapprec": 6738,
      "mp": 6739,
      "produ": 6740,
      "Ġhepatic": 6741,
      "Ġpla": 6742,
      "certain": 6743,
      "Ġantagon": 6744,
      "Ġcomplexes": 6745,
      "Ġfle": 6746,
      "Ġpancreat": 6747,
      "earchers": 6748,
      "Ġcloth": 6749,
      "ĠKnow": 6750,
      "ĠCath": 6751,
      "scale": 6752,
      "Ġbehavioral": 6753,
      "Ġinches": 6754,
      "Ġdifficulty": 6755,
      "Ġ1980": 6756,
      "amination": 6757,
      "Ġchart": 6758,
      "Ġantibiotics": 6759,
      "Ġfunding": 6760,
      "))": 6761,
      "acchar": 6762,
      "Ġundert": 6763,
      "Ġcohort": 6764,
      "ĠAut": 6765,
      "Ġsubt": 6766,
      "Ġsynthes": 6767,
      "Ġinvasive": 6768,
      "Ġaccepted": 6769,
      "76": 6770,
      "HT": 6771,
      "My": 6772,
      "ĠUV": 6773,
      "ĠExt": 6774,
      "Ġoptical": 6775,
      "oprotein": 6776,
      "Ġlect": 6777,
      "rite": 6778,
      "Ġgum": 6779,
      "Ġtrip": 6780,
      "mean": 6781,
      "lammatory": 6782,
      "Sc": 6783,
      "hesia": 6784,
      "Ġcenters": 6785,
      "kes": 6786,
      "win": 6787,
      "Ġsurge": 6788,
      "Ġvalve": 6789,
      "ĠClinical": 6790,
      "Ġtalking": 6791,
      "zheimer": 6792,
      "Ġdocuments": 6793,
      "ĠReport": 6794,
      "Ġgoods": 6795,
      "Ġmanip": 6796,
      "Ġoriginally": 6797,
      "enic": 6798,
      "using": 6799,
      "istan": 6800,
      "Ġacts": 6801,
      "Ġdegradation": 6802,
      "earing": 6803,
      "Ġneighb": 6804,
      "Ġincub": 6805,
      "rust": 6806,
      "ĠThomas": 6807,
      "ographs": 6808,
      "ĠCanadian": 6809,
      "Ġthermal": 6810,
      "ora": 6811,
      "Ġneural": 6812,
      "Ġvariations": 6813,
      "Ġnations": 6814,
      "Ġprotective": 6815,
      "Ġemployees": 6816,
      "Ġped": 6817,
      "ĠWell": 6818,
      "Ġappoint": 6819,
      "Ġnewly": 6820,
      "Ġlandscape": 6821,
      "ociated": 6822,
      "Ġhorse": 6823,
      "Ġpeptide": 6824,
      "ya": 6825,
      "Ġmolecule": 6826,
      "ĠAP": 6827,
      "ĠManagement": 6828,
      "methyl": 6829,
      "tion": 6830,
      "Ġintegrated": 6831,
      "Ġpermanent": 6832,
      "ĠBook": 6833,
      "Ġchol": 6834,
      "Ġdistributed": 6835,
      "Ġsurvive": 6836,
      "keletal": 6837,
      "Ġadopted": 6838,
      "omat": 6839,
      "Ġclar": 6840,
      "Ġtea": 6841,
      "rium": 6842,
      "ĠAbout": 6843,
      "Ġcircumst": 6844,
      "Ġpromin": 6845,
      "agers": 6846,
      "Ġaccumulation": 6847,
      "erals": 6848,
      "ĠSam": 6849,
      "Ġexists": 6850,
      "ĠStr": 6851,
      "osquit": 6852,
      "group": 6853,
      "ĠSign": 6854,
      "Ġancest": 6855,
      "ĠThose": 6856,
      "Ġpair": 6857,
      "Ġcomposed": 6858,
      "ini": 6859,
      "Ġtranscript": 6860,
      "Ġcars": 6861,
      "Ġhabits": 6862,
      "Ġsatisfact": 6863,
      "Read": 6864,
      "Ġcategories": 6865,
      "ĠMil": 6866,
      "idae": 6867,
      "igue": 6868,
      "Ġcytok": 6869,
      "Ġfalse": 6870,
      "47": 6871,
      "49": 6872,
      "ĠSaf": 6873,
      "Ġaims": 6874,
      "Ġstatistical": 6875,
      "olip": 6876,
      "erson": 6877,
      "Ġadvoc": 6878,
      "ophag": 6879,
      "Ġassigned": 6880,
      "ude": 6881,
      "ava": 6882,
      "Ġcreative": 6883,
      "IF": 6884,
      "from": 6885,
      "pread": 6886,
      "Ġchannel": 6887,
      "oned": 6888,
      "istant": 6889,
      "ĠLong": 6890,
      "Ġaltered": 6891,
      "Ġcurve": 6892,
      "ault": 6893,
      "Ġcertainly": 6894,
      "GE": 6895,
      "izer": 6896,
      "Ġsubstit": 6897,
      "Ġdynamics": 6898,
      "eur": 6899,
      "rovers": 6900,
      "Ġderm": 6901,
      "enter": 6902,
      "Ġenable": 6903,
      "Ġstarts": 6904,
      "ĠScient": 6905,
      "Ġ1999": 6906,
      "46": 6907,
      "Ġtraffic": 6908,
      "ints": 6909,
      "Ġdepartment": 6910,
      "Ġplacebo": 6911,
      "Ġpolymorph": 6912,
      "itus": 6913,
      "ville": 6914,
      "Ġfill": 6915,
      "Ġfilled": 6916,
      "Ġundergoing": 6917,
      "fish": 6918,
      "ĠWind": 6919,
      "Ġnoise": 6920,
      "Ġuter": 6921,
      "gly": 6922,
      "Ġstick": 6923,
      "Ġinfar": 6924,
      "Ġactivated": 6925,
      "Ġrevolution": 6926,
      "Ġmanufacturing": 6927,
      "card": 6928,
      "mary": 6929,
      "no": 6930,
      "ĠLibrary": 6931,
      "idespread": 6932,
      "Ġbattery": 6933,
      "Ġdetermination": 6934,
      "positive": 6935,
      "Ġmicroscopy": 6936,
      "Ġstead": 6937,
      "ĠBer": 6938,
      "Ġshell": 6939,
      "Ġnone": 6940,
      "ĠRet": 6941,
      "Ġera": 6942,
      "Ġinstitution": 6943,
      "Ġnec": 6944,
      "Ġparticipate": 6945,
      "Ġvaried": 6946,
      "EG": 6947,
      "uing": 6948,
      "Ġrecru": 6949,
      "Ġdioxide": 6950,
      "Ġlifestyle": 6951,
      "Ġtal": 6952,
      "Ġinvestment": 6953,
      "ĠInstead": 6954,
      "Ġclassification": 6955,
      "Ġresistant": 6956,
      "?âĢĿ": 6957,
      "ĠThrough": 6958,
      "Ġcoffee": 6959,
      "olecular": 6960,
      "Ġcolleagues": 6961,
      "abul": 6962,
      "ionally": 6963,
      "stim": 6964,
      "ĠFre": 6965,
      "Ġwors": 6966,
      "Ġtow": 6967,
      "Ġinfrastructure": 6968,
      "Ġneutral": 6969,
      "otypes": 6970,
      "Ġpretty": 6971,
      "ĠPA": 6972,
      "ĠAnother": 6973,
      "Ġanalyze": 6974,
      "Ġafford": 6975,
      "ael": 6976,
      "Ġlaun": 6977,
      "Ġtrained": 6978,
      "eper": 6979,
      "Ġreserv": 6980,
      "ĠLike": 6981,
      "Ġchallenging": 6982,
      "Ġsteel": 6983,
      "Ġfell": 6984,
      "utrition": 6985,
      "Ġblocks": 6986,
      "obacter": 6987,
      "Ġopposite": 6988,
      "Ġrepresented": 6989,
      "Ġcopper": 6990,
      "Ġmothers": 6991,
      "ĠAustralian": 6992,
      "Ġspin": 6993,
      "Ġlesion": 6994,
      "Ġshif": 6995,
      "Ġcorn": 6996,
      "rost": 6997,
      "ĠType": 6998,
      "Ġprices": 6999,
      "Ġthreshold": 7000,
      "uble": 7001,
      "Ġtitle": 7002,
      "hand": 7003,
      "Ġtreating": 7004,
      "Ġbusinesses": 7005,
      "Ġbabies": 7006,
      "Ġgram": 7007,
      "Ġimmig": 7008,
      "Ġfigures": 7009,
      "Other": 7010,
      "ĠOld": 7011,
      "arth": 7012,
      "Ġtri": 7013,
      "Ġrail": 7014,
      "Ġeryth": 7015,
      "Ġofficials": 7016,
      "eck": 7017,
      "Ġsupporting": 7018,
      "Ġcircul": 7019,
      "Ġclaims": 7020,
      "77": 7021,
      "HR": 7022,
      "Ġspecificity": 7023,
      "Ġmood": 7024,
      "ĠJer": 7025,
      "Ġregist": 7026,
      "Me": 7027,
      "Ġorth": 7028,
      "ĠLand": 7029,
      "Ġstanding": 7030,
      "Ġagriculture": 7031,
      "Ġlob": 7032,
      "hemistry": 7033,
      "Pe": 7034,
      "Ġmaps": 7035,
      "Ġtried": 7036,
      "Ġcomplicated": 7037,
      "osterone": 7038,
      "CG": 7039,
      "Can": 7040,
      "Ġrig": 7041,
      "Ġ2018": 7042,
      "Ġanswers": 7043,
      "Ġphysicians": 7044,
      "Ġsegment": 7045,
      "otes": 7046,
      "Ġsharing": 7047,
      "ĠAlzheimer": 7048,
      "Another": 7049,
      "Ġsweet": 7050,
      "Ġdream": 7051,
      "ĠProv": 7052,
      "Ġboost": 7053,
      "Ġ150": 7054,
      "Ġarchitecture": 7055,
      "ĠMeth": 7056,
      "Ġrhyth": 7057,
      "Ġswim": 7058,
      "ĠPsych": 7059,
      "Ġchoices": 7060,
      "Ġinstruments": 7061,
      "ivari": 7062,
      "Ġmyth": 7063,
      "Ġultrasound": 7064,
      "PV": 7065,
      "amide": 7066,
      "Ġraw": 7067,
      "ĠCommon": 7068,
      "Ġprompt": 7069,
      "Ġbind": 7070,
      "Ġcomment": 7071,
      "Ġcarbohyd": 7072,
      "Ġvulnerable": 7073,
      "CV": 7074,
      "Ġcos": 7075,
      "oto": 7076,
      "Ġbladder": 7077,
      "henyl": 7078,
      "Ġaggreg": 7079,
      "Ġspatial": 7080,
      "igation": 7081,
      "Ġmeal": 7082,
      "Ġarms": 7083,
      "Ġfoundation": 7084,
      "Ġcomplement": 7085,
      "Co": 7086,
      "flu": 7087,
      "itamin": 7088,
      "Ġinterv": 7089,
      "Ġhunt": 7090,
      "Ġaspect": 7091,
      "Ġwindow": 7092,
      "itness": 7093,
      "Ġ2020": 7094,
      "Ġrequest": 7095,
      "Ġcreates": 7096,
      "cholars": 7097,
      "Ġpresents": 7098,
      "Ġmaternal": 7099,
      "-(": 7100,
      "NT": 7101,
      "rophy": 7102,
      "ayer": 7103,
      "ĠProfessor": 7104,
      "body": 7105,
      "ĠBible": 7106,
      "Ġattached": 7107,
      "Ġsolve": 7108,
      "Ġlegs": 7109,
      "Ġspeaking": 7110,
      "Ġseiz": 7111,
      "âĢĻ.": 7112,
      "Ġparticipation": 7113,
      "Ġnest": 7114,
      "cel": 7115,
      "assium": 7116,
      "Ġcathe": 7117,
      "Ġsubstantial": 7118,
      "MT": 7119,
      "Ġenab": 7120,
      "Ġteen": 7121,
      "ĠJews": 7122,
      "Ġprospective": 7123,
      "Ġwidespread": 7124,
      "opic": 7125,
      "Ġmalignant": 7126,
      "Ġchromatography": 7127,
      "62": 7128,
      "ĠNations": 7129,
      "Ġmembranes": 7130,
      "Ġintestinal": 7131,
      "Ġhip": 7132,
      "Ġadhes": 7133,
      "ĠJose": 7134,
      "Ġcarefully": 7135,
      "Ġfracture": 7136,
      "Ġconstructed": 7137,
      "Ġaw": 7138,
      "Ġphoto": 7139,
      "Ġcopy": 7140,
      "Ġpull": 7141,
      "Ġstabil": 7142,
      "Ġcolour": 7143,
      "Ġdefects": 7144,
      "Ġexpansion": 7145,
      "Ġsecure": 7146,
      "Ġbiology": 7147,
      "ĠAnalysis": 7148,
      "Ġarteries": 7149,
      "rants": 7150,
      "Ġ55": 7151,
      "mm": 7152,
      "imen": 7153,
      "acco": 7154,
      "Ġbronch": 7155,
      "Bl": 7156,
      "yst": 7157,
      "Ġaortic": 7158,
      "ĠâĢ¦": 7159,
      "Ġuncom": 7160,
      "ĠArmy": 7161,
      "Ġhepatitis": 7162,
      "treated": 7163,
      "ellect": 7164,
      "irds": 7165,
      "Ġengage": 7166,
      "ĠExpl": 7167,
      "Ġconsumers": 7168,
      "Ġconsiderable": 7169,
      "Ġconsecut": 7170,
      "Ġduct": 7171,
      "ĠEarly": 7172,
      "Ġcontribution": 7173,
      "Ġerrors": 7174,
      "itone": 7175,
      "ĠFort": 7176,
      "OH": 7177,
      "Ġaging": 7178,
      "Ġranging": 7179,
      "Ġmountain": 7180,
      "Ġfly": 7181,
      "Ġye": 7182,
      "Ġknew": 7183,
      "Ġskill": 7184,
      "ĠNature": 7185,
      "hi": 7186,
      "ĠDet": 7187,
      "Ġcloud": 7188,
      "Ġcircuit": 7189,
      "Ġbreath": 7190,
      "eren": 7191,
      "acu": 7192,
      "Ġfossil": 7193,
      "Ġprolonged": 7194,
      "Ġborder": 7195,
      "uclear": 7196,
      "Ġbiod": 7197,
      "Ġaccounts": 7198,
      "ĠCarol": 7199,
      "Ġadolescents": 7200,
      "Ġboys": 7201,
      "Ġlisted": 7202,
      "Ġvolunteers": 7203,
      "emb": 7204,
      "ĠLab": 7205,
      "Ġinitially": 7206,
      "Ġtaste": 7207,
      "ĠSum": 7208,
      "atever": 7209,
      "Ġuniversity": 7210,
      "Ġendothelial": 7211,
      "phone": 7212,
      "Ġreplaced": 7213,
      "Ġcomparable": 7214,
      "otrop": 7215,
      "Ġveter": 7216,
      "Ġpaid": 7217,
      "Ġconclude": 7218,
      "bits": 7219,
      "ett": 7220,
      "ĠSl": 7221,
      "ĠMr": 7222,
      "Ġoutl": 7223,
      "word": 7224,
      "Ġspine": 7225,
      "Ġcompl": 7226,
      "Ġparticle": 7227,
      "ashion": 7228,
      "sub": 7229,
      "ĠMor": 7230,
      "ĠBur": 7231,
      "ĠEngine": 7232,
      "Ġsentence": 7233,
      "hist": 7234,
      "hav": 7235,
      "reted": 7236,
      "Ġchapter": 7237,
      "Ġaccident": 7238,
      "Ġpreventing": 7239,
      "Ġphr": 7240,
      "Ġpositions": 7241,
      "Ġleadership": 7242,
      "ĠPower": 7243,
      "Ġarrest": 7244,
      "ĠIP": 7245,
      "ivered": 7246,
      "oli": 7247,
      "plete": 7248,
      "herent": 7249,
      "Ġ42": 7250,
      "Ġidentical": 7251,
      "Ġseparated": 7252,
      "08": 7253,
      "Since": 7254,
      "ogens": 7255,
      "Ġselective": 7256,
      "43": 7257,
      "ÃŃ": 7258,
      "Ġforests": 7259,
      "Ġvillage": 7260,
      "called": 7261,
      "Ġreject": 7262,
      "Ġchosen": 7263,
      "Ġentry": 7264,
      "Ġtons": 7265,
      "Ġpestic": 7266,
      "Ġaccompanied": 7267,
      "68": 7268,
      "SH": 7269,
      "Ġnarr": 7270,
      "ĠNorthern": 7271,
      "Ġcentre": 7272,
      "Ġhospitals": 7273,
      "anes": 7274,
      "Ġongoing": 7275,
      "Ġchief": 7276,
      "associated": 7277,
      "ĠAdminist": 7278,
      "riage": 7279,
      "Ġintermediate": 7280,
      "63": 7281,
      "Ġgut": 7282,
      "racy": 7283,
      "Ġrib": 7284,
      "Ġwife": 7285,
      "Ġstock": 7286,
      "ogram": 7287,
      "Ġusage": 7288,
      "Ġinterests": 7289,
      "Ġlungs": 7290,
      "Ġrarely": 7291,
      "ushing": 7292,
      "Ġrank": 7293,
      "Ġconcrete": 7294,
      "inic": 7295,
      "arant": 7296,
      "Ġadopt": 7297,
      "Ġjustice": 7298,
      "Ġ2004": 7299,
      "Ġsan": 7300,
      "Ġmultip": 7301,
      "ĠRussia": 7302,
      "Ġcontrovers": 7303,
      "Ġposterior": 7304,
      "Ġarthritis": 7305,
      "Ġtight": 7306,
      "retion": 7307,
      "inflammatory": 7308,
      "Ġresonance": 7309,
      "OL": 7310,
      "anta": 7311,
      "ube": 7312,
      "azine": 7313,
      "uilding": 7314,
      "ĠAdditionally": 7315,
      "pect": 7316,
      "abit": 7317,
      "prise": 7318,
      "Ġcran": 7319,
      "Ġgenus": 7320,
      "Ġexhibit": 7321,
      "Ġtrad": 7322,
      "Ġcalories": 7323,
      "Ġshut": 7324,
      "Ġoutbreak": 7325,
      "ĠVis": 7326,
      "ĠReview": 7327,
      "Ġreaders": 7328,
      "Ġ2001": 7329,
      "roscopy": 7330,
      "Ġdrawing": 7331,
      "Ġhouses": 7332,
      "ĠSouthern": 7333,
      "Ġremind": 7334,
      "Ġfunctioning": 7335,
      "heric": 7336,
      "Ġspaces": 7337,
      "ulty": 7338,
      "alls": 7339,
      "eps": 7340,
      "Ġcalls": 7341,
      "Ġ1998": 7342,
      "Ġzero": 7343,
      "Ġtransportation": 7344,
      "Ġlots": 7345,
      "hydroxy": 7346,
      "ĠRussian": 7347,
      "Ġjourney": 7348,
      "habil": 7349,
      "Ġstated": 7350,
      "that": 7351,
      "Ġhaem": 7352,
      "Ġmaintaining": 7353,
      "ij": 7354,
      "inction": 7355,
      "ellar": 7356,
      "ĠFranc": 7357,
      "Ġadvantages": 7358,
      "ĠLouis": 7359,
      "Ġlib": 7360,
      "Ġsole": 7361,
      "idden": 7362,
      "Ġdischarge": 7363,
      "ano": 7364,
      "ĠMicro": 7365,
      "ny": 7366,
      "Ġreform": 7367,
      "add": 7368,
      "Ġbudget": 7369,
      "Le": 7370,
      "Ġwants": 7371,
      "ĠCop": 7372,
      "Ġprinciple": 7373,
      "Ġtolerance": 7374,
      "Ġimper": 7375,
      "ĠFederal": 7376,
      "Ġattend": 7377,
      "Ġhandle": 7378,
      "Ġsynthetic": 7379,
      "Ġemotions": 7380,
      "Ġroute": 7381,
      "Ġverteb": 7382,
      "Ġgreenhouse": 7383,
      "uzz": 7384,
      "era": 7385,
      "Ġreverse": 7386,
      "oted": 7387,
      "umps": 7388,
      "Ġroof": 7389,
      "Ġinsurance": 7390,
      "ĠNav": 7391,
      "Ġdisability": 7392,
      "Ġcloser": 7393,
      "],": 7394,
      "inating": 7395,
      "ĠMont": 7396,
      "ĠKen": 7397,
      "coma": 7398,
      "Ġopinion": 7399,
      "rays": 7400,
      "Ġneither": 7401,
      "Ġconnections": 7402,
      "Ġauthority": 7403,
      "Ġvoc": 7404,
      "Ġimpossible": 7405,
      "Ġmixture": 7406,
      "ĠGood": 7407,
      "Ġrising": 7408,
      "Ġsky": 7409,
      "Ġclinically": 7410,
      "ĠBased": 7411,
      "Ġarmy": 7412,
      "Ġunable": 7413,
      "Ġorganized": 7414,
      "Ġminimal": 7415,
      "Ġphosphory": 7416,
      "Ġsystematic": 7417,
      "Ġthickness": 7418,
      "ilateral": 7419,
      "dule": 7420,
      "Ġdistrict": 7421,
      "Ġdelivered": 7422,
      "Ġirrit": 7423,
      "Ġtrends": 7424,
      "Ġmere": 7425,
      "Ġgenome": 7426,
      "ĠRights": 7427,
      "Ġblind": 7428,
      "ĠAtt": 7429,
      "Ġlisten": 7430,
      "American": 7431,
      "rection": 7432,
      "Ġbutter": 7433,
      "oscopy": 7434,
      "'-": 7435,
      "ĠCell": 7436,
      "Ġpredominant": 7437,
      ")(": 7438,
      "Ġresident": 7439,
      "Ġcircumstances": 7440,
      "Lear": 7441,
      "Ġcompens": 7442,
      "Ġintelligence": 7443,
      "hop": 7444,
      "Ġdecreases": 7445,
      "Ġdiscrimination": 7446,
      "ĠCharles": 7447,
      "79": 7448,
      "Ġouter": 7449,
      "Ġintravenous": 7450,
      "just": 7451,
      "Ġhazard": 7452,
      "EA": 7453,
      "Ġdamaged": 7454,
      "Ġneighbor": 7455,
      "Ġban": 7456,
      "Ġdop": 7457,
      "Ġcham": 7458,
      "Ġrecomb": 7459,
      "Ġlands": 7460,
      "ophage": 7461,
      "Ġopened": 7462,
      "Ġml": 7463,
      "Ġseeing": 7464,
      "Ġtells": 7465,
      "Ġintense": 7466,
      "Ġagencies": 7467,
      "Ġends": 7468,
      "Ġeveryday": 7469,
      "Ġvelocity": 7470,
      "OD": 7471,
      "then": 7472,
      "igned": 7473,
      "Ġproven": 7474,
      "allow": 7475,
      "riting": 7476,
      "Ġdevelopmental": 7477,
      "Ġdownload": 7478,
      "ĠVirginia": 7479,
      "fortunately": 7480,
      "ĠSol": 7481,
      "Ġfilter": 7482,
      "Ġconcerning": 7483,
      "Ġentirely": 7484,
      "antly": 7485,
      "Ġcommunicate": 7486,
      "Ġmarker": 7487,
      "ĠSk": 7488,
      "phosph": 7489,
      "Ġinduce": 7490,
      "Ġmorb": 7491,
      "stein": 7492,
      "Ġcamera": 7493,
      "Ġstrict": 7494,
      "Ġfatigue": 7495,
      "âĢĳ": 7496,
      "ĠSing": 7497,
      "Ġlowest": 7498,
      "airy": 7499,
      "Ġspiritual": 7500,
      "IA": 7501,
      "Ã¡": 7502,
      "Ġhal": 7503,
      "ĠOF": 7504,
      "Ġconsecutive": 7505,
      "ococc": 7506,
      "Ġextension": 7507,
      "Ġvoltage": 7508,
      "First": 7509,
      "ĠCur": 7510,
      "Ġweap": 7511,
      "ricted": 7512,
      "Ġamaz": 7513,
      "Ġcapture": 7514,
      "erb": 7515,
      "ĠTime": 7516,
      "ĠAT": 7517,
      "Ġflag": 7518,
      "Ġturns": 7519,
      "Ġepithelial": 7520,
      "ocl": 7521,
      "Ġintr": 7522,
      "Ġhemat": 7523,
      "IDS": 7524,
      "Ġabst": 7525,
      "uro": 7526,
      "Ġbor": 7527,
      "Ġholid": 7528,
      "Ġcaps": 7529,
      "Ġexcessive": 7530,
      "Ġperceived": 7531,
      "41": 7532,
      "ita": 7533,
      "Ġoccurrence": 7534,
      "Ġbiggest": 7535,
      "86": 7536,
      "Qu": 7537,
      "itting": 7538,
      "icious": 7539,
      "Ġdecide": 7540,
      "Ġgather": 7541,
      "rowing": 7542,
      "Ġnov": 7543,
      "Ġreader": 7544,
      "Î²": 7545,
      "itter": 7546,
      "Ġepidem": 7547,
      "Ġrice": 7548,
      "Äģ": 7549,
      "olf": 7550,
      "Ġdegen": 7551,
      "Ġtruly": 7552,
      "Ġirradi": 7553,
      "Ġpanel": 7554,
      "emporary": 7555,
      "Ġquantum": 7556,
      "gence": 7557,
      "ĠBro": 7558,
      "Ġuniverse": 7559,
      "ey": 7560,
      "ĠUSA": 7561,
      "Ġsupplies": 7562,
      "aren": 7563,
      "ipping": 7564,
      "Ġassistance": 7565,
      "Ġaggressive": 7566,
      "Ġflo": 7567,
      "Ġdedicated": 7568,
      "hether": 7569,
      "hedule": 7570,
      "pert": 7571,
      "ĠCA": 7572,
      "Ġguidance": 7573,
      "Ġhorizon": 7574,
      "Ġpartially": 7575,
      "Ġelectroph": 7576,
      "Ġvenous": 7577,
      "ĠTHE": 7578,
      "anges": 7579,
      "Ġmicros": 7580,
      "Ġdetermining": 7581,
      "Ġstands": 7582,
      "Ġantibiotic": 7583,
      "Ġexercises": 7584,
      "ĠGlobal": 7585,
      "Ġstre": 7586,
      "class": 7587,
      "Ġmachines": 7588,
      "ĠSimilar": 7589,
      "Ġinvent": 7590,
      ".âĢĻ": 7591,
      "etric": 7592,
      "iph": 7593,
      "Ġmagnitude": 7594,
      "Ġdocumented": 7595,
      "Ġgalax": 7596,
      "oglobin": 7597,
      "neys": 7598,
      "Ġ400": 7599,
      "Ġmedi": 7600,
      "neg": 7601,
      "Ġfibers": 7602,
      "ocratic": 7603,
      "Ġimpairment": 7604,
      ".|": 7605,
      "89": 7606,
      "war": 7607,
      "Ġng": 7608,
      "Ġintellect": 7609,
      "Ġperception": 7610,
      "ercul": 7611,
      "Ġcutting": 7612,
      "Ġidentifying": 7613,
      "iva": 7614,
      "Ġinterface": 7615,
      "ĠItaly": 7616,
      "Ġdebate": 7617,
      "Ġcategory": 7618,
      "Ġtomography": 7619,
      "Ġexplanation": 7620,
      "Ġgrew": 7621,
      "estine": 7622,
      "Ġnearby": 7623,
      "Ġdifficulties": 7624,
      "ĠMuslim": 7625,
      "rific": 7626,
      "Ġintact": 7627,
      "Ġminerals": 7628,
      "Ġcatch": 7629,
      "Ġbroken": 7630,
      "See": 7631,
      "Ġmosquit": 7632,
      "Ġpoison": 7633,
      "Ġdifferential": 7634,
      "Ġinterf": 7635,
      "Ġprison": 7636,
      "ercury": 7637,
      "ancies": 7638,
      "III": 7639,
      "ĠHenry": 7640,
      "ĠSpain": 7641,
      "Ġprogramming": 7642,
      "ĠPan": 7643,
      "acent": 7644,
      "Ġinfusion": 7645,
      "Ġhappy": 7646,
      "Ġbasal": 7647,
      "oxic": 7648,
      "Ġpromising": 7649,
      "Ġtrigger": 7650,
      "ĠCommit": 7651,
      "Ġnursing": 7652,
      "irt": 7653,
      "Ġdisp": 7654,
      "Ġparties": 7655,
      "Ġeastern": 7656,
      "EF": 7657,
      "Ġseconds": 7658,
      "Ġintracellular": 7659,
      "Ġacquired": 7660,
      "ether": 7661,
      "ĠAS": 7662,
      "isted": 7663,
      "Ġarray": 7664,
      "ĠYet": 7665,
      "Ġultimately": 7666,
      "Ġprognosis": 7667,
      "Ġfinger": 7668,
      "TA": 7669,
      "Ġ1970": 7670,
      "Ġpurchase": 7671,
      "ĠAcademy": 7672,
      "isters": 7673,
      "eling": 7674,
      "ĠCR": 7675,
      "mentia": 7676,
      "Ġcovers": 7677,
      "ĠVict": 7678,
      "ĠEmp": 7679,
      "Ġcollaboration": 7680,
      "utch": 7681,
      "Ġneurop": 7682,
      "orses": 7683,
      "rophic": 7684,
      "Ġdominant": 7685,
      "abulary": 7686,
      "87": 7687,
      "Ġagency": 7688,
      "Ġindirect": 7689,
      "Ġcards": 7690,
      "ĠRobert": 7691,
      "ĠTem": 7692,
      "Ġstatistics": 7693,
      "Ġaudience": 7694,
      "iable": 7695,
      "pet": 7696,
      "Ġextraction": 7697,
      "Your": 7698,
      "ixt": 7699,
      "uty": 7700,
      "osyl": 7701,
      "Ġleak": 7702,
      "ĠEcon": 7703,
      "Ġshorter": 7704,
      "Ġclot": 7705,
      "Ġbot": 7706,
      "ĠAst": 7707,
      "ĠGold": 7708,
      "Ġcorpor": 7709,
      "author": 7710,
      "Ġcirculation": 7711,
      "Ġargument": 7712,
      "gs": 7713,
      "âĢĺ": 7714,
      "Ġdisrupt": 7715,
      "Ġimpaired": 7716,
      "Ġ39": 7717,
      "ĠStat": 7718,
      "IG": 7719,
      "Ġ120": 7720,
      "ĠNon": 7721,
      "Ġmacroph": 7722,
      "Ġdrawn": 7723,
      "Ġshapes": 7724,
      "Ġrecurrence": 7725,
      "Over": 7726,
      "ua": 7727,
      "Ġlies": 7728,
      "Ġstring": 7729,
      "Ġminute": 7730,
      "Ġchromosome": 7731,
      "Ġsight": 7732,
      "angl": 7733,
      "ĠCourt": 7734,
      "oa": 7735,
      "Ġprove": 7736,
      "Ġcollagen": 7737,
      "cons": 7738,
      "Ġpray": 7739,
      "ĠBal": 7740,
      "Ġseparation": 7741,
      "Ġcustom": 7742,
      "UT": 7743,
      "Ġpartner": 7744,
      "Ġgenerations": 7745,
      "Ġpotassium": 7746,
      "Ġnutritional": 7747,
      "Ġtall": 7748,
      "month": 7749,
      "Ġequation": 7750,
      "Ġconfig": 7751,
      "aud": 7752,
      "Ġislands": 7753,
      "Ġbreeding": 7754,
      "Ġdisplayed": 7755,
      "Ġstronger": 7756,
      "Ġid": 7757,
      "otid": 7758,
      "ĠAI": 7759,
      "Ġdefinite": 7760,
      "Ġwithd": 7761,
      "actic": 7762,
      "Ġmarrow": 7763,
      "iance": 7764,
      "Ġplane": 7765,
      "puter": 7766,
      "Ġtargeted": 7767,
      "ĠOffice": 7768,
      "efficient": 7769,
      "Ġmature": 7770,
      "Ġanth": 7771,
      "ĠCamp": 7772,
      "ĠGal": 7773,
      "Ġunless": 7774,
      "Ġinsight": 7775,
      "Ġaccessible": 7776,
      "UR": 7777,
      "hea": 7778,
      "Ġsizes": 7779,
      "Ġregen": 7780,
      "Ġsheet": 7781,
      "ogue": 7782,
      "ĠNatural": 7783,
      "Ġautism": 7784,
      "Ġaircraft": 7785,
      "Ġ1997": 7786,
      "PC": 7787,
      "gers": 7788,
      "essment": 7789,
      "ensitive": 7790,
      "Ġconsidering": 7791,
      "ophys": 7792,
      "Ġregulatory": 7793,
      "alities": 7794,
      "Ġheating": 7795,
      "icy": 7796,
      "ola": 7797,
      "ĠGet": 7798,
      "Ġcrow": 7799,
      "Ġnode": 7800,
      "ĠOx": 7801,
      "ĠItalian": 7802,
      "Ġobese": 7803,
      "Ġcareful": 7804,
      "Ġdescript": 7805,
      "Ġfractures": 7806,
      "Ġcoastal": 7807,
      "Ġcraft": 7808,
      "Ġstere": 7809,
      "ĠCH": 7810,
      "Ġadministr": 7811,
      "Ġgradually": 7812,
      "ka": 7813,
      "Ġmeters": 7814,
      "Ġgland": 7815,
      "Ġdelayed": 7816,
      "Ġthorough": 7817,
      "ophageal": 7818,
      "07": 7819,
      "Ġinher": 7820,
      "ols": 7821,
      "Ġcoli": 7822,
      "Ġcook": 7823,
      "Ġimplemented": 7824,
      "ĠForm": 7825,
      "Ġnewsp": 7826,
      "Ġphysics": 7827,
      "ften": 7828,
      "Ġserver": 7829,
      "Ġproviders": 7830,
      "Ġtherapies": 7831,
      "Ġsoldiers": 7832,
      "BT": 7833,
      "Per": 7834,
      "Ġsought": 7835,
      "Ġplayers": 7836,
      "Ġimprovements": 7837,
      "Ġmoral": 7838,
      "Ġinstructions": 7839,
      "Ġmoisture": 7840,
      "92": 7841,
      "BD": 7842,
      "Ġrivers": 7843,
      "Ġdoor": 7844,
      "cler": 7845,
      "Ġcarrying": 7846,
      "Ġpun": 7847,
      "Ġintensive": 7848,
      "rd": 7849,
      "Ġfo": 7850,
      "ĠAge": 7851,
      "ĠIll": 7852,
      "Ġdesigns": 7853,
      "Ġreproductive": 7854,
      "Not": 7855,
      "OM": 7856,
      "inet": 7857,
      "Ġscholars": 7858,
      "ĠTor": 7859,
      "ima": 7860,
      "Ġdefense": 7861,
      "Ġvein": 7862,
      "Ġfourth": 7863,
      "ĠKeep": 7864,
      "Ġtransplantation": 7865,
      "heast": 7866,
      "Ġjoints": 7867,
      "pression": 7868,
      "yles": 7869,
      "Ġconven": 7870,
      "Ġsell": 7871,
      "oust": 7872,
      "Ġrecurrent": 7873,
      "Ġrelief": 7874,
      "ĠSmith": 7875,
      "06": 7876,
      "Ġexclus": 7877,
      "ĠHome": 7878,
      "ĠLow": 7879,
      "Ġburning": 7880,
      "ena": 7881,
      "Ġment": 7882,
      "ĠBC": 7883,
      "ĠAny": 7884,
      "Ġprobability": 7885,
      "while": 7886,
      "Ġsatellite": 7887,
      "Ġboy": 7888,
      "Ġjoin": 7889,
      "Ġprominent": 7890,
      "Ġhole": 7891,
      "Ġfibro": 7892,
      "Ġ2003": 7893,
      "Ġrow": 7894,
      "Ġmitochondrial": 7895,
      "lt": 7896,
      "Ġgiant": 7897,
      "Ġfocuses": 7898,
      "Ġalgorithm": 7899,
      "ĠCatholic": 7900,
      "94": 7901,
      "Ġscript": 7902,
      "Ġattach": 7903,
      "such": 7904,
      "ĠCap": 7905,
      "Ġwasn": 7906,
      "ĠLeg": 7907,
      "enses": 7908,
      "Ġvaccines": 7909,
      "Ġstruggle": 7910,
      "OP": 7911,
      "Two": 7912,
      "Ġaward": 7913,
      "Ġsustained": 7914,
      "Ġallergic": 7915,
      "Ġhousing": 7916,
      "Ġfluorescence": 7917,
      "ĠNative": 7918,
      "Ġbridge": 7919,
      "Ġintervals": 7920,
      "Ġgun": 7921,
      "intestinal": 7922,
      "Ġcompetition": 7923,
      "Ġinvasion": 7924,
      "oir": 7925,
      "Ġnodes": 7926,
      "Ġtwenty": 7927,
      "Ġregulations": 7928,
      "Ġpolice": 7929,
      "72": 7930,
      "nea": 7931,
      "Ġvariability": 7932,
      "ĠComm": 7933,
      "ounter": 7934,
      "Ġemployment": 7935,
      "ĠClimate": 7936,
      "Ġbranches": 7937,
      "Ġbear": 7938,
      "ĠAcc": 7939,
      "osin": 7940,
      "Ġbuff": 7941,
      "Ġcounty": 7942,
      "Ġsensory": 7943,
      "Ġregardless": 7944,
      "Ġpp": 7945,
      "icle": 7946,
      "ĠPract": 7947,
      "ĠOh": 7948,
      "rick": 7949,
      "Ġdiets": 7950,
      "61": 7951,
      "erted": 7952,
      "anda": 7953,
      "Ġindependently": 7954,
      "93": 7955,
      "BM": 7956,
      "itan": 7957,
      "roc": 7958,
      "Ġwheat": 7959,
      "ypes": 7960,
      "Ġdecay": 7961,
      "Ġreporting": 7962,
      "Ġbarrier": 7963,
      "la": 7964,
      "Ġscar": 7965,
      "Ġavailability": 7966,
      "Ġfacility": 7967,
      "agnetic": 7968,
      "Ġnecessarily": 7969,
      "Ġemphasis": 7970,
      "Ġsession": 7971,
      "elescop": 7972,
      "Ġprocessed": 7973,
      "Ġfusion": 7974,
      "Ġfashion": 7975,
      "Ġdaughter": 7976,
      "ulture": 7977,
      "risk": 7978,
      "ĠDesign": 7979,
      "CF": 7980,
      "Ġprincipal": 7981,
      "ĠFamily": 7982,
      "Ġhemorrh": 7983,
      "operation": 7984,
      "Ġdimin": 7985,
      "Ġusual": 7986,
      "leg": 7987,
      "igaret": 7988,
      "arcin": 7989,
      "Ġaffinity": 7990,
      "Ġthousand": 7991,
      "Ġindependence": 7992,
      "under": 7993,
      "ittle": 7994,
      "opa": 7995,
      "Ġuncertain": 7996,
      "Ġexplo": 7997,
      "Ġty": 7998,
      "sey": 7999
    },
    "merges": [
      [
        "Ġ",
        "t"
      ],
      [
        "Ġ",
        "a"
      ],
      [
        "i",
        "n"
      ],
      [
        "h",
        "e"
      ],
      [
        "r",
        "e"
      ],
      [
        "o",
        "n"
      ],
      [
        "Ġt",
        "he"
      ],
      [
        "a",
        "t"
      ],
      [
        "e",
        "r"
      ],
      [
        "Ġ",
        "o"
      ],
      [
        "Ġ",
        "s"
      ],
      [
        "e",
        "n"
      ],
      [
        "Ġ",
        "c"
      ],
      [
        "e",
        "s"
      ],
      [
        "Ġ",
        "w"
      ],
      [
        "n",
        "d"
      ],
      [
        "a",
        "l"
      ],
      [
        "Ġ",
        "p"
      ],
      [
        "i",
        "t"
      ],
      [
        "i",
        "s"
      ],
      [
        "e",
        "d"
      ],
      [
        "o",
        "r"
      ],
      [
        "Ġo",
        "f"
      ],
      [
        "Ġ",
        "in"
      ],
      [
        "Ġ",
        "f"
      ],
      [
        "a",
        "n"
      ],
      [
        "Ġ",
        "b"
      ],
      [
        "i",
        "c"
      ],
      [
        "in",
        "g"
      ],
      [
        "Ġ",
        "m"
      ],
      [
        "i",
        "on"
      ],
      [
        "a",
        "r"
      ],
      [
        "Ġa",
        "nd"
      ],
      [
        "r",
        "o"
      ],
      [
        "Ġ",
        "d"
      ],
      [
        "Ġt",
        "o"
      ],
      [
        "a",
        "s"
      ],
      [
        "o",
        "u"
      ],
      [
        "l",
        "e"
      ],
      [
        "en",
        "t"
      ],
      [
        "c",
        "t"
      ],
      [
        "Ġ",
        "h"
      ],
      [
        "Ġ",
        "re"
      ],
      [
        "Ġt",
        "h"
      ],
      [
        "Ġ",
        "e"
      ],
      [
        "v",
        "e"
      ],
      [
        "o",
        "m"
      ],
      [
        "i",
        "l"
      ],
      [
        "Ġ",
        "l"
      ],
      [
        "Ġ",
        "n"
      ],
      [
        "s",
        "t"
      ],
      [
        "l",
        "y"
      ],
      [
        "at",
        "ion"
      ],
      [
        "e",
        "t"
      ],
      [
        "o",
        "l"
      ],
      [
        "i",
        "d"
      ],
      [
        "Ġ",
        "T"
      ],
      [
        "i",
        "m"
      ],
      [
        "Ġ",
        "g"
      ],
      [
        "Ġ",
        "is"
      ],
      [
        "s",
        "e"
      ],
      [
        "r",
        "a"
      ],
      [
        "u",
        "r"
      ],
      [
        "c",
        "e"
      ],
      [
        "o",
        "t"
      ],
      [
        "u",
        "t"
      ],
      [
        "Ġb",
        "e"
      ],
      [
        "u",
        "l"
      ],
      [
        "i",
        "g"
      ],
      [
        "Ġs",
        "t"
      ],
      [
        "o",
        "w"
      ],
      [
        "Ġf",
        "or"
      ],
      [
        "â",
        "Ģ"
      ],
      [
        "c",
        "h"
      ],
      [
        "Ġ",
        "u"
      ],
      [
        "it",
        "h"
      ],
      [
        "Ġ",
        "A"
      ],
      [
        "Ġ",
        "on"
      ],
      [
        "Ġw",
        "ith"
      ],
      [
        "Ġth",
        "at"
      ],
      [
        "Ġ",
        "("
      ],
      [
        "v",
        "er"
      ],
      [
        "e",
        "l"
      ],
      [
        "Ġp",
        "ro"
      ],
      [
        "i",
        "r"
      ],
      [
        "Ġ",
        "S"
      ],
      [
        "Ġc",
        "on"
      ],
      [
        "Ġa",
        "n"
      ],
      [
        "i",
        "f"
      ],
      [
        "Ġ",
        "C"
      ],
      [
        "a",
        "m"
      ],
      [
        "Ġ",
        "I"
      ],
      [
        "Ġa",
        "s"
      ],
      [
        "Ġ",
        "y"
      ],
      [
        "a",
        "y"
      ],
      [
        "t",
        "er"
      ],
      [
        "e",
        "re"
      ],
      [
        "o",
        "d"
      ],
      [
        "ĠT",
        "he"
      ],
      [
        "he",
        "r"
      ],
      [
        "Ġa",
        "re"
      ],
      [
        "a",
        "d"
      ],
      [
        "e",
        "ct"
      ],
      [
        "o",
        "p"
      ],
      [
        "u",
        "m"
      ],
      [
        "Ġo",
        "r"
      ],
      [
        "o",
        "s"
      ],
      [
        "Ġa",
        "l"
      ],
      [
        "re",
        "s"
      ],
      [
        "at",
        "e"
      ],
      [
        "i",
        "ve"
      ],
      [
        "Ġd",
        "e"
      ],
      [
        "Ġe",
        "x"
      ],
      [
        "m",
        "ent"
      ],
      [
        "g",
        "e"
      ],
      [
        "Ġ",
        "1"
      ],
      [
        "t",
        "h"
      ],
      [
        "u",
        "s"
      ],
      [
        "Ġw",
        "h"
      ],
      [
        "it",
        "y"
      ],
      [
        "is",
        "t"
      ],
      [
        "a",
        "b"
      ],
      [
        "Ġ",
        "v"
      ],
      [
        "Ġc",
        "om"
      ],
      [
        "Ġy",
        "ou"
      ],
      [
        "i",
        "es"
      ],
      [
        "Ġw",
        "as"
      ],
      [
        "Ġ",
        "P"
      ],
      [
        "Ġ",
        "it"
      ],
      [
        "es",
        "t"
      ],
      [
        "an",
        "t"
      ],
      [
        "ro",
        "m"
      ],
      [
        "Ġ",
        "M"
      ],
      [
        "Ġs",
        "u"
      ],
      [
        "es",
        "s"
      ],
      [
        "i",
        "v"
      ],
      [
        "Ġ",
        "he"
      ],
      [
        "o",
        "c"
      ],
      [
        "er",
        "s"
      ],
      [
        "Ġb",
        "y"
      ],
      [
        "u",
        "d"
      ],
      [
        "a",
        "c"
      ],
      [
        "q",
        "u"
      ],
      [
        "e",
        "m"
      ],
      [
        "o",
        "re"
      ],
      [
        "Ġc",
        "h"
      ],
      [
        "ic",
        "al"
      ],
      [
        "n",
        "t"
      ],
      [
        "il",
        "l"
      ],
      [
        "a",
        "in"
      ],
      [
        "Ġa",
        "t"
      ],
      [
        "at",
        "ed"
      ],
      [
        "i",
        "al"
      ],
      [
        "Ġ",
        "r"
      ],
      [
        "o",
        "g"
      ],
      [
        "Ġ",
        "B"
      ],
      [
        "or",
        "t"
      ],
      [
        "Ġh",
        "a"
      ],
      [
        "Ġ",
        "H"
      ],
      [
        "Ġf",
        "rom"
      ],
      [
        "ig",
        "h"
      ],
      [
        "p",
        "p"
      ],
      [
        "u",
        "re"
      ],
      [
        "Ġn",
        "e"
      ],
      [
        "i",
        "b"
      ],
      [
        "k",
        "e"
      ],
      [
        "Ġs",
        "e"
      ],
      [
        "Ġc",
        "an"
      ],
      [
        "âĢ",
        "Ļ"
      ],
      [
        "l",
        "d"
      ],
      [
        "u",
        "n"
      ],
      [
        "Ġ",
        "D"
      ],
      [
        "Ġ",
        "W"
      ],
      [
        "Ġ",
        "le"
      ],
      [
        "Ġ",
        "2"
      ],
      [
        "in",
        "e"
      ],
      [
        "p",
        "t"
      ],
      [
        "Ġ",
        "E"
      ],
      [
        "a",
        "ct"
      ],
      [
        "a",
        "nd"
      ],
      [
        "Ġs",
        "p"
      ],
      [
        "Ġw",
        "ere"
      ],
      [
        "Ġ",
        "F"
      ],
      [
        "el",
        "l"
      ],
      [
        "d",
        "u"
      ],
      [
        "ar",
        "t"
      ],
      [
        "ent",
        "s"
      ],
      [
        "Ġ",
        "en"
      ],
      [
        "Ġs",
        "h"
      ],
      [
        "Ġ",
        "R"
      ],
      [
        "f",
        "f"
      ],
      [
        "ro",
        "u"
      ],
      [
        "Ġ",
        "im"
      ],
      [
        "Ġn",
        "ot"
      ],
      [
        "Ġ",
        "N"
      ],
      [
        "p",
        "er"
      ],
      [
        "i",
        "a"
      ],
      [
        "o",
        "st"
      ],
      [
        "Ġre",
        "s"
      ],
      [
        "Ġha",
        "ve"
      ],
      [
        "ion",
        "s"
      ],
      [
        "Ġcom",
        "p"
      ],
      [
        "ul",
        "t"
      ],
      [
        "Ġth",
        "is"
      ],
      [
        "Ġw",
        "e"
      ],
      [
        "Ġa",
        "b"
      ],
      [
        "i",
        "z"
      ],
      [
        "Ġu",
        "s"
      ],
      [
        "i",
        "p"
      ],
      [
        "Ġin",
        "c"
      ],
      [
        "Ġ",
        "L"
      ],
      [
        "igh",
        "t"
      ],
      [
        "Ġ",
        "G"
      ],
      [
        "as",
        "t"
      ],
      [
        "an",
        "s"
      ],
      [
        "as",
        "e"
      ],
      [
        "al",
        "l"
      ],
      [
        "Ġa",
        "d"
      ],
      [
        "T",
        "he"
      ],
      [
        "t",
        "her"
      ],
      [
        "Ġin",
        "t"
      ],
      [
        "ic",
        "h"
      ],
      [
        "Ġd",
        "is"
      ],
      [
        "Ġp",
        "l"
      ],
      [
        "Ġ",
        "âĢ"
      ],
      [
        "a",
        "re"
      ],
      [
        "ve",
        "l"
      ],
      [
        "Ġcon",
        "t"
      ],
      [
        "ou",
        "s"
      ],
      [
        "0",
        "0"
      ],
      [
        "ar",
        "d"
      ],
      [
        "or",
        "m"
      ],
      [
        "p",
        "h"
      ],
      [
        "om",
        "e"
      ],
      [
        "e",
        "c"
      ],
      [
        "id",
        "e"
      ],
      [
        "e",
        "ar"
      ],
      [
        "ou",
        "r"
      ],
      [
        "ation",
        "s"
      ],
      [
        "g",
        "h"
      ],
      [
        "a",
        "g"
      ],
      [
        "p",
        "l"
      ],
      [
        "Ġa",
        "c"
      ],
      [
        "a",
        "ge"
      ],
      [
        "Ġw",
        "or"
      ],
      [
        "r",
        "u"
      ],
      [
        "Ġp",
        "at"
      ],
      [
        "ou",
        "ld"
      ],
      [
        "Ġ",
        "k"
      ],
      [
        "Ġp",
        "er"
      ],
      [
        "ĠI",
        "n"
      ],
      [
        "Ġst",
        "ud"
      ],
      [
        "Ġthe",
        "ir"
      ],
      [
        "ou",
        "t"
      ],
      [
        "Ġ",
        "O"
      ],
      [
        "ar",
        "y"
      ],
      [
        "res",
        "s"
      ],
      [
        "en",
        "ce"
      ],
      [
        "o",
        "od"
      ],
      [
        "re",
        "at"
      ],
      [
        "ct",
        "ion"
      ],
      [
        "ig",
        "n"
      ],
      [
        "Ġw",
        "he"
      ],
      [
        "Ġwh",
        "ich"
      ],
      [
        "en",
        "d"
      ],
      [
        "on",
        "g"
      ],
      [
        "Ġp",
        "re"
      ],
      [
        "Ġc",
        "l"
      ],
      [
        "a",
        "k"
      ],
      [
        "Ġal",
        "l"
      ],
      [
        "Ġm",
        "e"
      ],
      [
        "Ġm",
        "ore"
      ],
      [
        "en",
        "s"
      ],
      [
        "a",
        "p"
      ],
      [
        "Ġt",
        "r"
      ],
      [
        "Ġyou",
        "r"
      ],
      [
        "Ġ",
        "U"
      ],
      [
        "Ġh",
        "as"
      ],
      [
        "o",
        "se"
      ],
      [
        "Ġs",
        "y"
      ],
      [
        "Ġim",
        "p"
      ],
      [
        "an",
        "ce"
      ],
      [
        "il",
        "d"
      ],
      [
        "ĠT",
        "h"
      ],
      [
        "s",
        "o"
      ],
      [
        "i",
        "e"
      ],
      [
        "if",
        "ic"
      ],
      [
        "ab",
        "le"
      ],
      [
        "Ġin",
        "f"
      ],
      [
        "Ġthe",
        "y"
      ],
      [
        "at",
        "er"
      ],
      [
        "in",
        "d"
      ],
      [
        "u",
        "st"
      ],
      [
        "it",
        "ion"
      ],
      [
        "u",
        "al"
      ],
      [
        "i",
        "re"
      ],
      [
        "Ġw",
        "ill"
      ],
      [
        "e",
        "p"
      ],
      [
        "Ġb",
        "ut"
      ],
      [
        "if",
        "f"
      ],
      [
        "on",
        "e"
      ],
      [
        "ol",
        "og"
      ],
      [
        "or",
        "s"
      ],
      [
        "a",
        "ch"
      ],
      [
        "Ġo",
        "ther"
      ],
      [
        "Ġm",
        "an"
      ],
      [
        "y",
        "s"
      ],
      [
        "or",
        "y"
      ],
      [
        "Ġa",
        "pp"
      ],
      [
        "Ġe",
        "v"
      ],
      [
        "Ġt",
        "e"
      ],
      [
        ")",
        "."
      ],
      [
        "as",
        "s"
      ],
      [
        "t",
        "e"
      ],
      [
        "Ġal",
        "so"
      ],
      [
        "ff",
        "ect"
      ],
      [
        "Ġpat",
        "i"
      ],
      [
        "r",
        "i"
      ],
      [
        "k",
        "s"
      ],
      [
        "âĢ",
        "Ŀ"
      ],
      [
        "Ġd",
        "o"
      ],
      [
        "c",
        "ess"
      ],
      [
        "Ġa",
        "r"
      ],
      [
        "Ġd",
        "iff"
      ],
      [
        "Ġon",
        "e"
      ],
      [
        "Ġu",
        "n"
      ],
      [
        "ul",
        "ar"
      ],
      [
        "Ġs",
        "c"
      ],
      [
        "r",
        "ic"
      ],
      [
        "Ġth",
        "an"
      ],
      [
        "l",
        "ow"
      ],
      [
        "r",
        "y"
      ],
      [
        "Ġ",
        "J"
      ],
      [
        "a",
        "v"
      ],
      [
        "ou",
        "nd"
      ],
      [
        "Ġo",
        "ut"
      ],
      [
        "Ġp",
        "art"
      ],
      [
        "or",
        "d"
      ],
      [
        "'",
        "s"
      ],
      [
        "Ġ",
        "3"
      ],
      [
        "Ġa",
        "ct"
      ],
      [
        "an",
        "g"
      ],
      [
        "Ġb",
        "et"
      ],
      [
        "Ġt",
        "im"
      ],
      [
        "Ġre",
        "c"
      ],
      [
        "u",
        "e"
      ],
      [
        "re",
        "e"
      ],
      [
        "a",
        "ke"
      ],
      [
        "a",
        "ce"
      ],
      [
        "c",
        "es"
      ],
      [
        "a",
        "u"
      ],
      [
        "u",
        "b"
      ],
      [
        "at",
        "ive"
      ],
      [
        "c",
        "ed"
      ],
      [
        "ver",
        "y"
      ],
      [
        "y",
        "p"
      ],
      [
        "ic",
        "e"
      ],
      [
        "w",
        "e"
      ],
      [
        "Ġm",
        "ay"
      ],
      [
        "Ġ",
        "j"
      ],
      [
        "at",
        "es"
      ],
      [
        "o",
        "k"
      ],
      [
        "Ġ",
        "ra"
      ],
      [
        "re",
        "n"
      ],
      [
        "it",
        "e"
      ],
      [
        "er",
        "v"
      ],
      [
        "Ġab",
        "out"
      ],
      [
        "ou",
        "nt"
      ],
      [
        "i",
        "le"
      ],
      [
        "Ġs",
        "o"
      ],
      [
        "Ġp",
        "h"
      ],
      [
        "Ġas",
        "s"
      ],
      [
        "Ġg",
        "en"
      ],
      [
        "le",
        "ct"
      ],
      [
        "Ġwh",
        "o"
      ],
      [
        "Ġy",
        "ear"
      ],
      [
        "Ġpati",
        "ents"
      ],
      [
        "Ġ",
        "qu"
      ],
      [
        "Ġ",
        "ro"
      ],
      [
        "nd",
        "er"
      ],
      [
        "Ġp",
        "e"
      ],
      [
        "b",
        "er"
      ],
      [
        "Ġcom",
        "m"
      ],
      [
        "ĠâĢ",
        "ľ"
      ],
      [
        "Ġbe",
        "en"
      ],
      [
        ")",
        ","
      ],
      [
        "ac",
        "k"
      ],
      [
        "as",
        "ed"
      ],
      [
        "Ġc",
        "ell"
      ],
      [
        "Ġthe",
        "se"
      ],
      [
        "Ġb",
        "l"
      ],
      [
        "ay",
        "s"
      ],
      [
        "er",
        "m"
      ],
      [
        "n",
        "ow"
      ],
      [
        "i",
        "ke"
      ],
      [
        "Ġin",
        "ter"
      ],
      [
        "l",
        "ud"
      ],
      [
        "a",
        "il"
      ],
      [
        "am",
        "e"
      ],
      [
        "u",
        "c"
      ],
      [
        "on",
        "s"
      ],
      [
        "Ġa",
        "g"
      ],
      [
        "Ġ1",
        "9"
      ],
      [
        "ĠTh",
        "is"
      ],
      [
        "Ġdiff",
        "ere"
      ],
      [
        "Ġre",
        "p"
      ],
      [
        "is",
        "h"
      ],
      [
        "f",
        "ter"
      ],
      [
        "vel",
        "op"
      ],
      [
        "l",
        "l"
      ],
      [
        "Ġf",
        "e"
      ],
      [
        "Ġm",
        "et"
      ],
      [
        "ĠI",
        "t"
      ],
      [
        "l",
        "ic"
      ],
      [
        "on",
        "d"
      ],
      [
        "Ġc",
        "ol"
      ],
      [
        "j",
        "ect"
      ],
      [
        "Ġre",
        "l"
      ],
      [
        "Ġs",
        "ur"
      ],
      [
        "Ġin",
        "d"
      ],
      [
        "ĠS",
        "t"
      ],
      [
        "Ġu",
        "nder"
      ],
      [
        "Ġt",
        "w"
      ],
      [
        "Ġo",
        "b"
      ],
      [
        "al",
        "th"
      ],
      [
        "Ġcon",
        "s"
      ],
      [
        "i",
        "ed"
      ],
      [
        "Ġex",
        "p"
      ],
      [
        "Ġu",
        "p"
      ],
      [
        "Ġwhe",
        "n"
      ],
      [
        "Ġo",
        "ver"
      ],
      [
        "Ġint",
        "o"
      ],
      [
        "Ġt",
        "ra"
      ],
      [
        "Ġtim",
        "e"
      ],
      [
        "ing",
        "s"
      ],
      [
        "Ġbe",
        "c"
      ],
      [
        "Ġu",
        "se"
      ],
      [
        "Ġs",
        "ign"
      ],
      [
        "st",
        "em"
      ],
      [
        "Ġthe",
        "m"
      ],
      [
        "l",
        "es"
      ],
      [
        "Ġ",
        "K"
      ],
      [
        "rou",
        "gh"
      ],
      [
        "Ġit",
        "s"
      ],
      [
        "Ġsu",
        "b"
      ],
      [
        "Ġa",
        "m"
      ],
      [
        "Ġe",
        "ffect"
      ],
      [
        "ver",
        "s"
      ],
      [
        "Ġh",
        "ad"
      ],
      [
        "al",
        "ly"
      ],
      [
        "o",
        "b"
      ],
      [
        "Ġre",
        "g"
      ],
      [
        "Ġs",
        "ome"
      ],
      [
        "ur",
        "ing"
      ],
      [
        "Ġd",
        "es"
      ],
      [
        "Ġsp",
        "ec"
      ],
      [
        "ar",
        "i"
      ],
      [
        "we",
        "en"
      ],
      [
        "m",
        "er"
      ],
      [
        "Ġinc",
        "re"
      ],
      [
        "Ġde",
        "velop"
      ],
      [
        "ot",
        "h"
      ],
      [
        "Ġthe",
        "re"
      ],
      [
        "Ġc",
        "o"
      ],
      [
        "ro",
        "w"
      ],
      [
        "r",
        "it"
      ],
      [
        "op",
        "le"
      ],
      [
        "at",
        "ing"
      ],
      [
        "Ġg",
        "rou"
      ],
      [
        "Ġtr",
        "ans"
      ],
      [
        "Ġm",
        "ost"
      ],
      [
        "Ġch",
        "ild"
      ],
      [
        "it",
        "ies"
      ],
      [
        "Ġh",
        "ow"
      ],
      [
        "il",
        "ity"
      ],
      [
        "Ġbet",
        "ween"
      ],
      [
        "Ġus",
        "ed"
      ],
      [
        "in",
        "t"
      ],
      [
        "Ġp",
        "o"
      ],
      [
        "ir",
        "st"
      ],
      [
        "Ġwor",
        "k"
      ],
      [
        "n",
        "e"
      ],
      [
        "au",
        "se"
      ],
      [
        "Ġinc",
        "lud"
      ],
      [
        "Ġp",
        "res"
      ],
      [
        "m",
        "s"
      ],
      [
        "Ġ2",
        "0"
      ],
      [
        "Ġne",
        "w"
      ],
      [
        "Ġ",
        "4"
      ],
      [
        "c",
        "y"
      ],
      [
        "Ġres",
        "p"
      ],
      [
        "ou",
        "gh"
      ],
      [
        "Ġ",
        "V"
      ],
      [
        "Ġo",
        "ur"
      ],
      [
        "Ġtw",
        "o"
      ],
      [
        "Ġin",
        "v"
      ],
      [
        "Ġstud",
        "y"
      ],
      [
        "Ġ",
        "5"
      ],
      [
        "Ġn",
        "o"
      ],
      [
        "ĠC",
        "h"
      ],
      [
        "Ġd",
        "et"
      ],
      [
        "Ġde",
        "c"
      ],
      [
        "Ġk",
        "now"
      ],
      [
        "Ġpro",
        "du"
      ],
      [
        "i",
        "an"
      ],
      [
        "n",
        "ing"
      ],
      [
        "r",
        "ib"
      ],
      [
        "Ġh",
        "is"
      ],
      [
        "Ġm",
        "od"
      ],
      [
        "Ġh",
        "igh"
      ],
      [
        "Ġsy",
        "stem"
      ],
      [
        "Ġpe",
        "ople"
      ],
      [
        "is",
        "s"
      ],
      [
        "re",
        "d"
      ],
      [
        "u",
        "res"
      ],
      [
        "Ġ",
        "\""
      ],
      [
        "Ġa",
        "fter"
      ],
      [
        "ic",
        "s"
      ],
      [
        "ment",
        "s"
      ],
      [
        "Ġres",
        "ult"
      ],
      [
        "Ġg",
        "o"
      ],
      [
        "Ġsh",
        "ow"
      ],
      [
        "i",
        "ent"
      ],
      [
        "Ġpro",
        "v"
      ],
      [
        "Ġs",
        "a"
      ],
      [
        "Ġne",
        "ed"
      ],
      [
        "f",
        "orm"
      ],
      [
        "oc",
        "i"
      ],
      [
        "he",
        "d"
      ],
      [
        "Ġl",
        "ike"
      ],
      [
        "Ġsu",
        "ch"
      ],
      [
        "he",
        "n"
      ],
      [
        "os",
        "s"
      ],
      [
        "o",
        "v"
      ],
      [
        "as",
        "es"
      ],
      [
        "p",
        "le"
      ],
      [
        "Ġf",
        "irst"
      ],
      [
        "Ġgrou",
        "p"
      ],
      [
        "Ġon",
        "ly"
      ],
      [
        "o",
        "ve"
      ],
      [
        "ro",
        "s"
      ],
      [
        "ation",
        "al"
      ],
      [
        "ra",
        "ct"
      ],
      [
        "he",
        "s"
      ],
      [
        "c",
        "er"
      ],
      [
        "ro",
        "p"
      ],
      [
        "Ġhe",
        "l"
      ],
      [
        "al",
        "s"
      ],
      [
        "Ġth",
        "rough"
      ],
      [
        "Ġhe",
        "alth"
      ],
      [
        "Ġf",
        "l"
      ],
      [
        "ter",
        "n"
      ],
      [
        "r",
        "on"
      ],
      [
        "Ġad",
        "d"
      ],
      [
        "Ġe",
        "m"
      ],
      [
        "Ġact",
        "iv"
      ],
      [
        "an",
        "ge"
      ],
      [
        "is",
        "e"
      ],
      [
        "Ġhel",
        "p"
      ],
      [
        "Ġyear",
        "s"
      ],
      [
        "ib",
        "le"
      ],
      [
        "Ġdiffere",
        "nt"
      ],
      [
        "ar",
        "k"
      ],
      [
        "Ġle",
        "vel"
      ],
      [
        "c",
        "ent"
      ],
      [
        "Ġm",
        "ed"
      ],
      [
        "Ġt",
        "reat"
      ],
      [
        "f",
        "ul"
      ],
      [
        "in",
        "s"
      ],
      [
        "at",
        "h"
      ],
      [
        "y",
        "l"
      ],
      [
        "ce",
        "pt"
      ],
      [
        "Ġac",
        "c"
      ],
      [
        "Ġ",
        "if"
      ],
      [
        "Ġp",
        "r"
      ],
      [
        "Ġ",
        "Y"
      ],
      [
        "t",
        "ain"
      ],
      [
        "ra",
        "m"
      ],
      [
        "i",
        "ous"
      ],
      [
        "Ġan",
        "y"
      ],
      [
        "Ġw",
        "ell"
      ],
      [
        "ol",
        "d"
      ],
      [
        "Ġ",
        "0"
      ],
      [
        "c",
        "c"
      ],
      [
        "id",
        "ent"
      ],
      [
        "Ġre",
        "m"
      ],
      [
        "Ġd",
        "i"
      ],
      [
        "o",
        "ok"
      ],
      [
        "Ġf",
        "ound"
      ],
      [
        "Ġc",
        "ar"
      ],
      [
        "at",
        "a"
      ],
      [
        "ere",
        "d"
      ],
      [
        "Ġs",
        "m"
      ],
      [
        "Ġman",
        "y"
      ],
      [
        "ant",
        "s"
      ],
      [
        "iz",
        "ed"
      ],
      [
        "ow",
        "er"
      ],
      [
        "Ġw",
        "ould"
      ],
      [
        "in",
        "k"
      ],
      [
        "b",
        "le"
      ],
      [
        "ut",
        "ion"
      ],
      [
        "Ġsu",
        "pp"
      ],
      [
        "Ġd",
        "uring"
      ],
      [
        "ro",
        "l"
      ],
      [
        "f",
        "t"
      ],
      [
        "ical",
        "ly"
      ],
      [
        "e",
        "ver"
      ],
      [
        "Ġdis",
        "e"
      ],
      [
        "Ġan",
        "t"
      ],
      [
        "Ġm",
        "on"
      ],
      [
        "Ġs",
        "im"
      ],
      [
        "Ġwh",
        "at"
      ],
      [
        "Ġf",
        "ol"
      ],
      [
        "f",
        "ore"
      ],
      [
        "Ġex",
        "am"
      ],
      [
        "Ġfor",
        "m"
      ],
      [
        "Ġat",
        "t"
      ],
      [
        "Ġex",
        "per"
      ],
      [
        "Ġsign",
        "ific"
      ],
      [
[...]
